{
  "version": "1.0",
  "truncation": null,
  "padding": null,
  "added_tokens": [
    {
      "id": 0,
      "special": true,
      "content": "[UNK]",
      "single_word": false,
      "lstrip": false,
      "rstrip": false,
      "normalized": false
    },
    {
      "id": 1,
      "special": true,
      "content": "[PAD]",
      "single_word": false,
      "lstrip": false,
      "rstrip": false,
      "normalized": false
    },
    {
      "id": 2,
      "special": true,
      "content": "[CLS]",
      "single_word": false,
      "lstrip": false,
      "rstrip": false,
      "normalized": false
    },
    {
      "id": 3,
      "special": true,
      "content": "[SEP]",
      "single_word": false,
      "lstrip": false,
      "rstrip": false,
      "normalized": false
    },
    {
      "id": 4,
      "special": true,
      "content": "[MASK]",
      "single_word": false,
      "lstrip": false,
      "rstrip": false,
      "normalized": false
    }
  ],
  "normalizer": null,
  "pre_tokenizer": {
    "type": "Whitespace"
  },
  "post_processor": null,
  "decoder": null,
  "model": {
    "type": "WordPiece",
    "unk_token": "[UNK]",
    "continuing_subword_prefix": "##",
    "max_input_chars_per_word": 100,
    "vocab": {
      "[UNK]": 0,
      "[PAD]": 1,
      "[CLS]": 2,
      "[SEP]": 3,
      "[MASK]": 4,
      "0": 5,
      "1": 6,
      "2": 7,
      "3": 8,
      "4": 9,
      "5": 10,
      "6": 11,
      "7": 12,
      "8": 13,
      "9": 14,
      "a": 15,
      "b": 16,
      "c": 17,
      "d": 18,
      "e": 19,
      "f": 20,
      "g": 21,
      "h": 22,
      "i": 23,
      "j": 24,
      "k": 25,
      "l": 26,
      "m": 27,
      "n": 28,
      "o": 29,
      "p": 30,
      "q": 31,
      "r": 32,
      "s": 33,
      "t": 34,
      "u": 35,
      "v": 36,
      "w": 37,
      "x": 38,
      "y": 39,
      "z": 40,
      "##v": 41,
      "##e": 42,
      "##b": 43,
      "##3": 44,
      "##1": 45,
      "##0": 46,
      "##4": 47,
      "##y": 48,
      "##8": 49,
      "##7": 50,
      "##2": 51,
      "##5": 52,
      "##o": 53,
      "##s": 54,
      "##h": 55,
      "##l": 56,
      "##u": 57,
      "##m": 58,
      "##t": 59,
      "##i": 60,
      "##n": 61,
      "##g": 62,
      "##r": 63,
      "##d": 64,
      "##c": 65,
      "##a": 66,
      "##p": 67,
      "##k": 68,
      "##6": 69,
      "##x": 70,
      "##f": 71,
      "##9": 72,
      "##w": 73,
      "##z": 74,
      "##j": 75,
      "##q": 76,
      "##in": 77,
      "##ou": 78,
      "th": 79,
      "##er": 80,
      "to": 81,
      "you": 82,
      "##ll": 83,
      "##at": 84,
      "##ing": 85,
      "##en": 86,
      "##or": 87,
      "##on": 88,
      "##an": 89,
      "##es": 90,
      "##re": 91,
      "##om": 92,
      "##ow": 93,
      "the": 94,
      "##ar": 95,
      "##ed": 96,
      "an": 97,
      "##ve": 98,
      "##et": 99,
      "##ay": 100,
      "##it": 101,
      "##st": 102,
      "ha": 103,
      "##ot": 104,
      "in": 105,
      "##le": 106,
      "##is": 107,
      "ca": 108,
      "wh": 109,
      "me": 110,
      "on": 111,
      "##ut": 112,
      "it": 113,
      "and": 114,
      "is": 115,
      "##ly": 116,
      "go": 117,
      "##ic": 118,
      "for": 119,
      "re": 120,
      "be": 121,
      "st": 122,
      "##as": 123,
      "of": 124,
      "we": 125,
      "##al": 126,
      "my": 127,
      "##00": 128,
      "##ent": 129,
      "your": 130,
      "call": 131,
      "##id": 132,
      "##im": 133,
      "##gh": 134,
      "##ch": 135,
      "##ill": 136,
      "##ome": 137,
      "do": 138,
      "sh": 139,
      "##ke": 140,
      "that": 141,
      "##op": 142,
      "he": 143,
      "##ri": 144,
      "lo": 145,
      "##xt": 146,
      "have": 147,
      "##ere": 148,
      "can": 149,
      "##ght": 150,
      "so": 151,
      "##ac": 152,
      "im": 153,
      "##ad": 154,
      "li": 155,
      "##ont": 156,
      "ne": 157,
      "##ust": 158,
      "are": 159,
      "##od": 160,
      "##one": 161,
      "##ld": 162,
      "or": 163,
      "no": 164,
      "now": 165,
      "not": 166,
      "te": 167,
      "##ee": 168,
      "ur": 169,
      "##ur": 170,
      "ch": 171,
      "##am": 172,
      "##ith": 173,
      "at": 174,
      "get": 175,
      "##end": 176,
      "##ob": 177,
      "##ver": 178,
      "##ec": 179,
      "##un": 180,
      "##se": 181,
      "##ight": 182,
      "but": 183,
      "##th": 184,
      "##ess": 185,
      "##ry": 186,
      "with": 187,
      "##ant": 188,
      "##ion": 189,
      "fr": 190,
      "##pp": 191,
      "##50": 192,
      "##ir": 193,
      "##nt": 194,
      "will": 195,
      "if": 196,
      "pl": 197,
      "as": 198,
      "co": 199,
      "just": 200,
      "up": 201,
      "##il": 202,
      "##nd": 203,
      "am": 204,
      "##day": 205,
      "##ree": 206,
      "ok": 207,
      "lt": 208,
      "pr": 209,
      "##all": 210,
      "al": 211,
      "how": 212,
      "this": 213,
      "##ge": 214,
      "##est": 215,
      "wor": 216,
      "##gt": 217,
      "##ce": 218,
      "##ate": 219,
      "its": 220,
      "kn": 221,
      "free": 222,
      "when": 223,
      "de": 224,
      "out": 225,
      "dont": 226,
      "##ake": 227,
      "what": 228,
      "any": 229,
      "##ea": 230,
      "all": 231,
      "from": 232,
      "##us": 233,
      "good": 234,
      "ltgt": 235,
      "know": 236,
      "##ab": 237,
      "##um": 238,
      "got": 239,
      "##ter": 240,
      "##ol": 241,
      "ab": 242,
      "day": 243,
      "##ould": 244,
      "##ers": 245,
      "##ile": 246,
      "sp": 247,
      "##ine": 248,
      "##out": 249,
      "##and": 250,
      "08": 251,
      "##ime": 252,
      "cl": 253,
      "like": 254,
      "ill": 255,
      "was": 256,
      "##king": 257,
      "want": 258,
      "gu": 259,
      "##ice": 260,
      "text": 261,
      "##ore": 262,
      "then": 263,
      "come": 264,
      "##if": 265,
      "su": 266,
      "##art": 267,
      "##ks": 268,
      "love": 269,
      "##ard": 270,
      "only": 271,
      "bo": 272,
      "time": 273,
      "some": 274,
      "com": 275,
      "##ive": 276,
      "did": 277,
      "send": 278,
      "##ack": 279,
      "min": 280,
      "mob": 281,
      "##ain": 282,
      "txt": 283,
      "po": 284,
      "wee": 285,
      "##ish": 286,
      "there": 287,
      "##iss": 288,
      "##90": 289,
      "sa": 290,
      "wat": 291,
      "##ally": 292,
      "se": 293,
      "sm": 294,
      "##ct": 295,
      "need": 296,
      "see": 297,
      "rep": 298,
      "sor": 299,
      "##xx": 300,
      "fin": 301,
      "than": 302,
      "##ite": 303,
      "##ink": 304,
      "ar": 305,
      "week": 306,
      "lat": 307,
      "happ": 308,
      "by": 309,
      "ph": 310,
      "today": 311,
      "##000": 312,
      "##71": 313,
      "##sh": 314,
      "##ick": 315,
      "##pt": 316,
      "one": 317,
      "going": 318,
      "ever": 319,
      "home": 320,
      "##ok": 321,
      "##ast": 322,
      "stop": 323,
      "##sg": 324,
      "about": 325,
      "af": 326,
      "##ul": 327,
      "da": 328,
      "lor": 329,
      "new": 330,
      "##ber": 331,
      "##ound": 332,
      "hi": 333,
      "##reat": 334,
      "tell": 335,
      "sorry": 336,
      "wa": 337,
      "150": 338,
      "ton": 339,
      "##leas": 340,
      "back": 341,
      "ma": 342,
      "##age": 343,
      "still": 344,
      "off": 345,
      "##ect": 346,
      "mobile": 347,
      "reply": 348,
      "090": 349,
      "ex": 350,
      "aw": 351,
      "our": 352,
      "##ra": 353,
      "##os": 354,
      "mu": 355,
      "she": 356,
      "fri": 357,
      "pleas": 358,
      "##ck": 359,
      "##ope": 360,
      "##ie": 361,
      "##row": 362,
      "say": 363,
      "think": 364,
      "##ong": 365,
      "##70": 366,
      "##our": 367,
      "well": 368,
      "##ady": 369,
      "her": 370,
      "un": 371,
      "##ame": 372,
      "miss": 373,
      "##ving": 374,
      "every": 375,
      "us": 376,
      "##ia": 377,
      "they": 378,
      "ask": 379,
      "later": 380,
      "##her": 381,
      "##act": 382,
      "en": 383,
      "qu": 384,
      "##ud": 385,
      "##mor": 386,
      "##ig": 387,
      "meet": 388,
      "been": 389,
      "le": 390,
      "friend": 391,
      "mess": 392,
      "##na": 393,
      "who": 394,
      "dear": 395,
      "please": 396,
      "cant": 397,
      "take": 398,
      "##ning": 399,
      "phone": 400,
      "##ation": 401,
      "br": 402,
      "night": 403,
      "tr": 404,
      "##aim": 405,
      "##ace": 406,
      "has": 407,
      "wait": 408,
      "bab": 409,
      "man": 410,
      "pri": 411,
      "##so": 412,
      "##lf": 413,
      "ev": 414,
      "##red": 415,
      "after": 416,
      "bu": 417,
      "great": 418,
      "here": 419,
      "##ide": 420,
      "much": 421,
      "##ep": 422,
      "##hing": 423,
      "##ub": 424,
      "##ww": 425,
      "mo": 426,
      "num": 427,
      "##ag": 428,
      "oh": 429,
      "thing": 430,
      "##pm": 431,
      "##ort": 432,
      "0871": 433,
      "claim": 434,
      "him": 435,
      "hope": 436,
      "won": 437,
      "##ff": 438,
      "hey": 439,
      "work": 440,
      "ad": 441,
      "##ze": 442,
      "##fe": 443,
      "where": 444,
      "pls": 445,
      "ac": 446,
      "bl": 447,
      "more": 448,
      "win": 449,
      "##mm": 450,
      "##pl": 451,
      "##thing": 452,
      "cont": 453,
      "msg": 454,
      "wan": 455,
      "##oy": 456,
      "##der": 457,
      "##we": 458,
      "too": 459,
      "happy": 460,
      "ag": 461,
      "##ach": 462,
      "##ha": 463,
      "##66": 464,
      "had": 465,
      "##22": 466,
      "way": 467,
      "##ak": 468,
      "should": 469,
      "thats": 470,
      "give": 471,
      "ser": 472,
      "yes": 473,
      "##up": 474,
      "##ass": 475,
      "##eel": 476,
      "con": 477,
      "lea": 478,
      "make": 479,
      "let": 480,
      "##sc": 481,
      "ro": 482,
      "##cou": 483,
      "prob": 484,
      "feel": 485,
      "##ting": 486,
      "##way": 487,
      "dr": 488,
      "mor": 489,
      "right": 490,
      "##em": 491,
      "##morrow": 492,
      "try": 493,
      "number": 494,
      "##30": 495,
      "sle": 496,
      "may": 497,
      "##ear": 498,
      "##oo": 499,
      "tomorrow": 500,
      "##ready": 501,
      "cam": 502,
      "cash": 503,
      "even": 504,
      "som": 505,
      "##li": 506,
      "##eep": 507,
      "already": 508,
      "##ail": 509,
      "them": 510,
      "prize": 511,
      "##no": 512,
      "said": 513,
      "message": 514,
      "were": 515,
      "doing": 516,
      "dun": 517,
      "yea": 518,
      "##20": 519,
      "really": 520,
      "coll": 521,
      "somet": 522,
      "yeah": 523,
      "##ough": 524,
      "##own": 525,
      "hav": 526,
      "sleep": 527,
      "fe": 528,
      "##lp": 529,
      "care": 530,
      "lu": 531,
      "www": 532,
      "##ery": 533,
      "show": 534,
      "amp": 535,
      "didnt": 536,
      "would": 537,
      "##be": 538,
      "##ys": 539,
      "##ue": 540,
      "##ial": 541,
      "##com": 542,
      "##ap": 543,
      "life": 544,
      "per": 545,
      "##ance": 546,
      "app": 547,
      "bet": 548,
      "car": 549,
      "fu": 550,
      "pick": 551,
      "##ip": 552,
      "last": 553,
      "##40": 554,
      "##ist": 555,
      "why": 556,
      "thanks": 557,
      "serv": 558,
      "morning": 559,
      "nok": 560,
      "cust": 561,
      "down": 562,
      "gr": 563,
      "keep": 564,
      "very": 565,
      "##gent": 566,
      "##au": 567,
      "##int": 568,
      "rem": 569,
      "##alk": 570,
      "cos": 571,
      "anything": 572,
      "sure": 573,
      "babe": 574,
      "id": 575,
      "ive": 576,
      "sent": 577,
      "buy": 578,
      "again": 579,
      "oth": 580,
      "year": 581,
      "##150": 582,
      "lol": 583,
      "find": 584,
      "wish": 585,
      "##80": 586,
      "contact": 587,
      "##ous": 588,
      "##ary": 589,
      "##other": 590,
      "start": 591,
      "hell": 592,
      "nokia": 593,
      "dis": 594,
      "##ans": 595,
      "##oney": 596,
      "play": 597,
      "also": 598,
      "end": 599,
      "jo": 600,
      "over": 601,
      "##lo": 602,
      "##get": 603,
      "bef": 604,
      "gud": 605,
      "watch": 606,
      "##ind": 607,
      "##ity": 608,
      "urgent": 609,
      "##ich": 610,
      "spec": 611,
      "something": 612,
      "dat": 613,
      "ho": 614,
      "ya": 615,
      "##ment": 616,
      "##ner": 617,
      "##wh": 618,
      "finish": 619,
      "could": 620,
      "##eed": 621,
      "##ss": 622,
      "##line": 623,
      "award": 624,
      "before": 625,
      "ent": 626,
      "pers": 627,
      "val": 628,
      "##10": 629,
      "soon": 630,
      "10": 631,
      "fir": 632,
      "##ble": 633,
      "##45": 634,
      "##88": 635,
      "##ox": 636,
      "##ms": 637,
      "##ies": 638,
      "##ange": 639,
      "help": 640,
      "box": 641,
      "other": 642,
      "lot": 643,
      "##cess": 644,
      "##ouch": 645,
      "custom": 646,
      "person": 647,
      "gon": 648,
      "##iday": 649,
      "chat": 650,
      "0906": 651,
      "fo": 652,
      "fl": 653,
      "mat": 654,
      "##to": 655,
      "##ds": 656,
      "##co": 657,
      "next": 658,
      "around": 659,
      "tonight": 660,
      "##ways": 661,
      "first": 662,
      "late": 663,
      "went": 664,
      "##23": 665,
      "##ose": 666,
      "##iv": 667,
      "##ise": 668,
      "does": 669,
      "place": 670,
      "ear": 671,
      "his": 672,
      "##rs": 673,
      "##are": 674,
      "##per": 675,
      "##ought": 676,
      "which": 677,
      "someone": 678,
      "comp": 679,
      "act": 680,
      "gir": 681,
      "money": 682,
      "part": 683,
      "sat": 684,
      "tc": 685,
      "##orm": 686,
      "chec": 687,
      "##able": 688,
      "friends": 689,
      "many": 690,
      "collect": 691,
      "service": 692,
      "customer": 693,
      "land": 694,
      "pe": 695,
      "res": 696,
      "##uff": 697,
      "##count": 698,
      "gonna": 699,
      "16": 700,
      "nice": 701,
      "ring": 702,
      "sc": 703,
      "##el": 704,
      "##iz": 705,
      "char": 706,
      "always": 707,
      "bus": 708,
      "mar": 709,
      "pre": 710,
      "par": 711,
      "pic": 712,
      "wont": 713,
      "##87": 714,
      "##ah": 715,
      "rece": 716,
      "##onth": 717,
      "cost": 718,
      "minut": 719,
      "eat": 720,
      "wif": 721,
      "##ure": 722,
      "##pr": 723,
      "shop": 724,
      "plan": 725,
      "leave": 726,
      "special": 727,
      "em": 728,
      "hol": 729,
      "yet": 730,
      "##24": 731,
      "told": 732,
      "youre": 733,
      "##ream": 734,
      "##ade": 735,
      "##self": 736,
      "18": 737,
      "800": 738,
      "bit": 739,
      "cr": 740,
      "pay": 741,
      "sch": 742,
      "##he": 743,
      "boy": 744,
      "waiting": 745,
      "things": 746,
      "bir": 747,
      "hour": 748,
      "name": 749,
      "##77": 750,
      "##21": 751,
      "##ty": 752,
      "pro": 753,
      "coming": 754,
      "hello": 755,
      "best": 756,
      "sec": 757,
      "yo": 758,
      "##34": 759,
      "##60": 760,
      "##wor": 761,
      "thk": 762,
      "##arant": 763,
      "haha": 764,
      "real": 765,
      "reach": 766,
      "##ople": 767,
      "##obox": 768,
      "##ions": 769,
      "##ppm": 770,
      "guarant": 771,
      "happen": 772,
      "girl": 773,
      "100": 774,
      "done": 775,
      "long": 776,
      "##ft": 777,
      "ans": 778,
      "bec": 779,
      "getting": 780,
      "##unch": 781,
      "people": 782,
      "guaranteed": 783,
      "dri": 784,
      "fun": 785,
      "sl": 786,
      "sun": 787,
      "same": 788,
      "##gg": 789,
      "##ouse": 790,
      "thought": 791,
      "##ang": 792,
      "##oth": 793,
      "inf": 794,
      "stuff": 795,
      "class": 796,
      "tone": 797,
      "havent": 798,
      "1000": 799,
      "din": 800,
      "fine": 801,
      "month": 802,
      "tri": 803,
      "talk": 804,
      "wk": 805,
      "##av": 806,
      "##ward": 807,
      "heart": 808,
      "room": 809,
      "check": 810,
      "lunch": 811,
      "net": 812,
      "swe": 813,
      "tw": 814,
      "use": 815,
      "##joy": 816,
      "##ence": 817,
      "##ode": 818,
      "mins": 819,
      "holiday": 820,
      "dec": 821,
      "job": 822,
      "la": 823,
      "xxx": 824,
      "##11": 825,
      "##oke": 826,
      "##ix": 827,
      "##port": 828,
      "##wn": 829,
      "live": 830,
      "0870": 831,
      "enjoy": 832,
      "add": 833,
      "500": 834,
      "ah": 835,
      "lar": 836,
      "vide": 837,
      "##cl": 838,
      "never": 839,
      "hows": 840,
      "##iff": 841,
      "sms": 842,
      "smile": 843,
      "##raw": 844,
      "proble": 845,
      "12": 846,
      "bed": 847,
      "big": 848,
      "house": 849,
      "line": 850,
      "yup": 851,
      "##39": 852,
      "##uz": 853,
      "##rat": 854,
      "##ful": 855,
      "being": 856,
      "look": 857,
      "##ult": 858,
      "##ember": 859,
      "di": 860,
      "draw": 861,
      "hur": 862,
      "pa": 863,
      "pobox": 864,
      "##ple": 865,
      "##ond": 866,
      "cool": 867,
      "guess": 868,
      "mind": 869,
      "sex": 870,
      "0905": 871,
      "meeting": 872,
      "account": 873,
      "##scri": 874,
      "trying": 875,
      "few": 876,
      "better": 877,
      "sweet": 878,
      "bat": 879,
      "wr": 880,
      "##18": 881,
      "##mas": 882,
      "##ro": 883,
      "##ao": 884,
      "##its": 885,
      "having": 886,
      "##lect": 887,
      "ready": 888,
      "days": 889,
      "##ause": 890,
      "1st": 891,
      "200": 892,
      "bt": 893,
      "##mo": 894,
      "##ons": 895,
      "##ents": 896,
      "##ody": 897,
      "luv": 898,
      "birth": 899,
      "dar": 900,
      "sw": 901,
      "sim": 902,
      "tm": 903,
      "##ually": 904,
      "##ily": 905,
      "##ious": 906,
      "##eres": 907,
      "##rect": 908,
      "half": 909,
      "god": 910,
      "shit": 911,
      "ltd": 912,
      "world": 913,
      "sub": 914,
      "weekend": 915,
      "latest": 916,
      "##ounds": 917,
      "exp": 918,
      "receive": 919,
      "av": 920,
      "dad": 921,
      "sk": 922,
      "##ved": 923,
      "##oking": 924,
      "##ik": 925,
      "##got": 926,
      "##era": 927,
      "chance": 928,
      "att": 929,
      "##ester": 930,
      "word": 931,
      "guys": 932,
      "compl": 933,
      "poly": 934,
      "150pm": 935,
      "bring": 936,
      "problem": 937,
      "bor": 938,
      "eas": 939,
      "face": 940,
      "put": 941,
      "vouch": 942,
      "##tle": 943,
      "##qu": 944,
      "##ete": 945,
      "stay": 946,
      "##imes": 947,
      "nothing": 948,
      "frnd": 949,
      "prin": 950,
      "##eak": 951,
      "##ands": 952,
      "08000": 953,
      "##ages": 954,
      "wanna": 955,
      "##couk": 956,
      "awarded": 957,
      "because": 958,
      "den": 959,
      "el": 960,
      "less": 961,
      "mr": 962,
      "sir": 963,
      "##ew": 964,
      "##ny": 965,
      "##gs": 966,
      "##ph": 967,
      "another": 968,
      "##ably": 969,
      "join": 970,
      "hes": 971,
      "jus": 972,
      "kiss": 973,
      "##12": 974,
      "##55": 975,
      "##med": 976,
      "##ts": 977,
      "##tt": 978,
      "##ng": 979,
      "##ones": 980,
      "into": 981,
      "hear": 982,
      "whats": 983,
      "select": 984,
      "quest": 985,
      "wonder": 986,
      "camera": 987,
      "shows": 988,
      "ringt": 989,
      "dinner": 990,
      "video": 991,
      "birthday": 992,
      "2000": 993,
      "##38": 994,
      "##ool": 995,
      "##sub": 996,
      "##ma": 997,
      "thin": 998,
      "##ese": 999,
      "##ited": 1000,
      "inv": 1001,
      "liao": 1002,
      "##urn": 1003,
      "post": 1004,
      "offer": 1005,
      "quite": 1006,
      "remember": 1007,
      "landline": 1008,
      "bad": 1009,
      "dream": 1010,
      "hu": 1011,
      "lit": 1012,
      "mom": 1013,
      "might": 1014,
      "set": 1015,
      "ta": 1016,
      "##36": 1017,
      "##16": 1018,
      "##78": 1019,
      "##cor": 1020,
      "##ping": 1021,
      "##ins": 1022,
      "##ens": 1023,
      "deli": 1024,
      "##ift": 1025,
      "book": 1026,
      "##ude": 1027,
      "apply": 1028,
      "fuck": 1029,
      "watching": 1030,
      "09061": 1031,
      "answ": 1032,
      "deliver": 1033,
      "aight": 1034,
      "cra": 1035,
      "det": 1036,
      "hot": 1037,
      "op": 1038,
      "pain": 1039,
      "run": 1040,
      "sur": 1041,
      "##vie": 1042,
      "##ank": 1043,
      "once": 1044,
      "forgot": 1045,
      "calls": 1046,
      "called": 1047,
      "##iles": 1048,
      "speak": 1049,
      "supp": 1050,
      "point": 1051,
      "150ppm": 1052,
      "##ongrat": 1053,
      "baby": 1054,
      "probably": 1055,
      "early": 1056,
      "networ": 1057,
      "two": 1058,
      "diff": 1059,
      "hun": 1060,
      "pass": 1061,
      "##ever": 1062,
      "##14": 1063,
      "##ta": 1064,
      "##iy": 1065,
      "##gry": 1066,
      "##ress": 1067,
      "##ait": 1068,
      "##zy": 1069,
      "##ouble": 1070,
      "ind": 1071,
      "mean": 1072,
      "shes": 1073,
      "log": 1074,
      "thanx": 1075,
      "actually": 1076,
      "minutes": 1077,
      "princess": 1078,
      "code": 1079,
      "congrat": 1080,
      "mon": 1081,
      "must": 1082,
      "made": 1083,
      "sn": 1084,
      "##vd": 1085,
      "##26": 1086,
      "##use": 1087,
      "tot": 1088,
      "##ory": 1089,
      "##any": 1090,
      "inter": 1091,
      "read": 1092,
      "stud": 1093,
      "##ently": 1094,
      "list": 1095,
      "##xxxx": 1096,
      "todays": 1097,
      "left": 1098,
      "##ween": 1099,
      "conf": 1100,
      "maybe": 1101,
      "dunno": 1102,
      "luck": 1103,
      "between": 1104,
      "tcs": 1105,
      "shopping": 1106,
      "easy": 1107,
      "ringtone": 1108,
      "sit": 1109,
      "tv": 1110,
      "##yl": 1111,
      "##ild": 1112,
      "##aut": 1113,
      "##kes": 1114,
      "theres": 1115,
      "##ered": 1116,
      "reg": 1117,
      "head": 1118,
      "##right": 1119,
      "orange": 1120,
      "thank": 1121,
      "##ship": 1122,
      "tones": 1123,
      "mail": 1124,
      "everything": 1125,
      "leh": 1126,
      "most": 1127,
      "##ails": 1128,
      "##noon": 1129,
      "##load": 1130,
      "tmr": 1131,
      "##ikk": 1132,
      "little": 1133,
      "2nd": 1134,
      "cut": 1135,
      "mum": 1136,
      "sin": 1137,
      "und": 1138,
      "##ves": 1139,
      "##hrs": 1140,
      "##les": 1141,
      "##time": 1142,
      "##date": 1143,
      "##ps": 1144,
      "##fr": 1145,
      "those": 1146,
      "##ert": 1147,
      "##ret": 1148,
      "shall": 1149,
      "looking": 1150,
      "che": 1151,
      "col": 1152,
      "working": 1153,
      "##ola": 1154,
      "office": 1155,
      "enough": 1156,
      "evening": 1157,
      "school": 1158,
      "selected": 1159,
      "network": 1160,
      "cou": 1161,
      "cred": 1162,
      "opt": 1163,
      "xmas": 1164,
      "##body": 1165,
      "##yp": 1166,
      "##msg": 1167,
      "##ier": 1168,
      "##ave": 1169,
      "town": 1170,
      "##ather": 1171,
      "##anc": 1172,
      "##reak": 1173,
      "while": 1174,
      "without": 1175,
      "0800": 1176,
      "09066": 1177,
      "await": 1178,
      "asked": 1179,
      "##ations": 1180,
      "hold": 1181,
      "##where": 1182,
      "doesnt": 1183,
      "##portant": 1184,
      "sexy": 1185,
      "gift": 1186,
      "hmm": 1187,
      "kind": 1188,
      "mus": 1189,
      "rent": 1190,
      "test": 1191,
      "unt": 1192,
      "wen": 1193,
      "##ell": 1194,
      "##br": 1195,
      "##15": 1196,
      "##08": 1197,
      "##99": 1198,
      "##ates": 1199,
      "important": 1200,
      "##ames": 1201,
      "anyway": 1202,
      "wanted": 1203,
      "texts": 1204,
      "150p": 1205,
      "says": 1206,
      "missing": 1207,
      "true": 1208,
      "afternoon": 1209,
      "087187": 1210,
      "came": 1211,
      "full": 1212,
      "##150p": 1213,
      "else": 1214,
      "answer": 1215,
      "details": 1216,
      "since": 1217,
      "under": 1218,
      "until": 1219,
      "ap": 1220,
      "wot": 1221,
      "wake": 1222,
      "##bo": 1223,
      "##ock": 1224,
      "##lt": 1225,
      "##lie": 1226,
      "##txt": 1227,
      "##cks": 1228,
      "##69": 1229,
      "though": 1230,
      "##ath": 1231,
      "hair": 1232,
      "means": 1233,
      "goes": 1234,
      "##imal": 1235,
      "okay": 1236,
      "abt": 1237,
      "able": 1238,
      "entry": 1239,
      "valid": 1240,
      "collection": 1241,
      "870": 1242,
      "fam": 1243,
      "juz": 1244,
      "ten": 1245,
      "til": 1246,
      "times": 1247,
      "wed": 1248,
      "walk": 1249,
      "##28": 1250,
      "##ull": 1251,
      "##ues": 1252,
      "##uct": 1253,
      "##me": 1254,
      "##win": 1255,
      "ref": 1256,
      "str": 1257,
      "##ason": 1258,
      "order": 1259,
      "plz": 1260,
      "plus": 1261,
      "worry": 1262,
      "aft": 1263,
      "away": 1264,
      "##ational": 1265,
      "years": 1266,
      "##subscri": 1267,
      "colour": 1268,
      "5000": 1269,
      "cle": 1270,
      "double": 1271,
      "kk": 1272,
      "pub": 1273,
      "ter": 1274,
      "till": 1275,
      "tak": 1276,
      "##va": 1277,
      "##44": 1278,
      "##ood": 1279,
      "##ual": 1280,
      "##gn": 1281,
      "##dy": 1282,
      "top": 1283,
      "##ital": 1284,
      "##ices": 1285,
      "##ical": 1286,
      "beaut": 1287,
      "##ither": 1288,
      "update": 1289,
      "price": 1290,
      "alright": 1291,
      "guy": 1292,
      "weekly": 1293,
      "eng": 1294,
      "##pls": 1295,
      "drop": 1296,
      "wife": 1297,
      "slow": 1298,
      "##esterday": 1299,
      "bored": 1300,
      "question": 1301,
      "11": 1302,
      "250": 1303,
      "cor": 1304,
      "dude": 1305,
      "er": 1306,
      "eve": 1307,
      "hand": 1308,
      "hard": 1309,
      "oso": 1310,
      "yesterday": 1311,
      "##bers": 1312,
      "##side": 1313,
      "##tc": 1314,
      "##ian": 1315,
      "##ren": 1316,
      "##wk": 1317,
      "##zz": 1318,
      "these": 1319,
      "##arch": 1320,
      "haf": 1321,
      "online": 1322,
      "yours": 1323,
      "##ecimal": 1324,
      "del": 1325,
      "saw": 1326,
      "making": 1327,
      "makes": 1328,
      "unl": 1329,
      "lei": 1330,
      "messages": 1331,
      "##pmin": 1332,
      "##scs": 1333,
      "feeling": 1334,
      "##empt": 1335,
      "food": 1336,
      "##coz": 1337,
      "resp": 1338,
      "hurt": 1339,
      "ltdecimal": 1340,
      "attempt": 1341,
      "open": 1342,
      "music": 1343,
      "ltdecimalgt": 1344,
      "cur": 1345,
      "card": 1346,
      "either": 1347,
      "fast": 1348,
      "hop": 1349,
      "ip": 1350,
      "med": 1351,
      "ny": 1352,
      "nite": 1353,
      "rate": 1354,
      "tick": 1355,
      "##32": 1356,
      "##51": 1357,
      "##lin": 1358,
      "##uk": 1359,
      "##net": 1360,
      "##ator": 1361,
      "##ition": 1362,
      "goin": 1363,
      "yourself": 1364,
      "##ried": 1365,
      "change": 1366,
      "##ths": 1367,
      "prom": 1368,
      "words": 1369,
      "club": 1370,
      "search": 1371,
      "smil": 1372,
      "ard": 1373,
      "missed": 1374,
      "friendship": 1375,
      "lets": 1376,
      "##402": 1377,
      "driving": 1378,
      "inform": 1379,
      "tried": 1380,
      "address": 1381,
      "delivery": 1382,
      "family": 1383,
      "age": 1384,
      "bon": 1385,
      "fant": 1386,
      "game": 1387,
      "htt": 1388,
      "ke": 1389,
      "mur": 1390,
      "nt": 1391,
      "norm": 1392,
      "ra": 1393,
      "sing": 1394,
      "sad": 1395,
      "tscs": 1396,
      "vis": 1397,
      "wid": 1398,
      "##ya": 1399,
      "##74": 1400,
      "##og": 1401,
      "##ling": 1402,
      "##ib": 1403,
      "##aa": 1404,
      "##ply": 1405,
      "##95": 1406,
      "##w1": 1407,
      "thr": 1408,
      "toget": 1409,
      "##esh": 1410,
      "##reet": 1411,
      "##ets": 1412,
      "##stand": 1413,
      "##uth": 1414,
      "##alking": 1415,
      "calling": 1416,
      "lose": 1417,
      "##amp": 1418,
      "wants": 1419,
      "##iful": 1420,
      "comes": 1421,
      "sae": 1422,
      "##osed": 1423,
      "##ign": 1424,
      "train": 1425,
      "priv": 1426,
      "movie": 1427,
      "sleeping": 1428,
      "gr8": 1429,
      "pics": 1430,
      "8007": 1431,
      "hours": 1432,
      "trip": 1433,
      "090580": 1434,
      "dreams": 1435,
      "listen": 1436,
      "##ype": 1437,
      "##lieve": 1438,
      "beautiful": 1439,
      "bonus": 1440,
      "together": 1441,
      "aiy": 1442,
      "both": 1443,
      "break": 1444,
      "date": 1445,
      "nat": 1446,
      "old": 1447,
      "treat": 1448,
      "touch": 1449,
      "war": 1450,
      "##but": 1451,
      "##100": 1452,
      "##sp": 1453,
      "##tin": 1454,
      "##ially": 1455,
      "##ga": 1456,
      "##cking": 1457,
      "took": 1458,
      "##llow": 1459,
      "##atch": 1460,
      "##ony": 1461,
      "##esome": 1462,
      "##stop": 1463,
      "inc": 1464,
      "isnt": 1465,
      "##ict": 1466,
      "forget": 1467,
      "rec": 1468,
      "believe": 1469,
      "story": 1470,
      "##rist": 1471,
      "noe": 1472,
      "chikk": 1473,
      "##ires": 1474,
      "ass": 1475,
      "coz": 1476,
      "##oss": 1477,
      "saying": 1478,
      "08712": 1479,
      "drink": 1480,
      "##ister": 1481,
      "match": 1482,
      "charge": 1483,
      "busy": 1484,
      "email": 1485,
      "drive": 1486,
      "direct": 1487,
      "150pmsg": 1488,
      "vouchers": 1489,
      "huh": 1490,
      "points": 1491,
      "smiling": 1492,
      "murder": 1493,
      "20": 1494,
      "750": 1495,
      "80": 1496,
      "866": 1497,
      "bill": 1498,
      "cour": 1499,
      "far": 1500,
      "gd": 1501,
      "gal": 1502,
      "lau": 1503,
      "mid": 1504,
      "pounds": 1505,
      "ret": 1506,
      "rite": 1507,
      "sum": 1508,
      "ti": 1509,
      "wil": 1510,
      "##35": 1511,
      "##hl": 1512,
      "##how": 1513,
      "##lc": 1514,
      "##led": 1515,
      "##lands": 1516,
      "##iate": 1517,
      "##ne": 1518,
      "##night": 1519,
      "##gb": 1520,
      "##cle": 1521,
      "##cvd": 1522,
      "##ject": 1523,
      "tomo": 1524,
      "##ower": 1525,
      "##vel": 1526,
      "##iting": 1527,
      "inst": 1528,
      "##ash": 1529,
      "##ided": 1530,
      "##opt": 1531,
      "##irt": 1532,
      "okie": 1533,
      "##atever": 1534,
      "close": 1535,
      "final": 1536,
      "awesome": 1537,
      "unsubscri": 1538,
      "brother": 1539,
      "adv": 1540,
      "leaving": 1541,
      "started": 1542,
      "finished": 1543,
      "minute": 1544,
      "second": 1545,
      "secret": 1546,
      "##iously": 1547,
      "avail": 1548,
      "080009": 1549,
      "thinking": 1550,
      "study": 1551,
      "http": 1552,
      "private": 1553,
      "86688": 1554,
      "auct": 1555,
      "each": 1556,
      "found": 1557,
      "fanc": 1558,
      "hor": 1559,
      "hit": 1560,
      "kid": 1561,
      "ni": 1562,
      "pap": 1563,
      "uk": 1564,
      "wit": 1565,
      "##ege": 1566,
      "##ym": 1567,
      "##839": 1568,
      "##75": 1569,
      "##29": 1570,
      "##ove": 1571,
      "##oice": 1572,
      "##man": 1573,
      "##mob": 1574,
      "##more": 1575,
      "##ible": 1576,
      "##d8": 1577,
      "##call": 1578,
      "##iness": 1579,
      "angry": 1580,
      "##veal": 1581,
      "cause": 1582,
      "state": 1583,
      "short": 1584,
      "lover": 1585,
      "neva": 1586,
      "worth": 1587,
      "anyone": 1588,
      "sell": 1589,
      "smoke": 1590,
      "news": 1591,
      "max": 1592,
      "everyone": 1593,
      "msgs": 1594,
      "services": 1595,
      "download": 1596,
      "valu": 1597,
      "valent": 1598,
      "lots": 1599,
      "##603": 1600,
      "##gging": 1601,
      "simple": 1602,
      "voucher": 1603,
      "taking": 1604,
      "congrats": 1605,
      "snow": 1606,
      "curr": 1607,
      "laugh": 1608,
      "unsubscribe": 1609,
      "auction": 1610,
      "statement": 1611,
      "300": 1612,
      "bday": 1613,
      "dist": 1614,
      "fa": 1615,
      "fil": 1616,
      "fix": 1617,
      "games": 1618,
      "jay": 1619,
      "men": 1620,
      "mot": 1621,
      "mine": 1622,
      "pur": 1623,
      "rest": 1624,
      "si": 1625,
      "sis": 1626,
      "sister": 1627,
      "##la": 1628,
      "##land": 1629,
      "##los": 1630,
      "##min": 1631,
      "##fa": 1632,
      "##full": 1633,
      "tho": 1634,
      "##erent": 1635,
      "##esent": 1636,
      "whatever": 1637,
      "##icult": 1638,
      "forward": 1639,
      "##entif": 1640,
      "loving": 1641,
      "##ads": 1642,
      "light": 1643,
      "choo": 1644,
      "christ": 1645,
      "alone": 1646,
      "knw": 1647,
      "##ife": 1648,
      "weeks": 1649,
      "exc": 1650,
      "##705": 1651,
      "quiz": 1652,
      "trans": 1653,
      "content": 1654,
      "##30705": 1655,
      "identif": 1656,
      "dating": 1657,
      "company": 1658,
      "charg": 1659,
      "pret": 1660,
      "park": 1661,
      "parents": 1662,
      "##press": 1663,
      "12hrs": 1664,
      "subscri": 1665,
      "expires": 1666,
      "complete": 1667,
      "lesson": 1668,
      "confir": 1669,
      "lucky": 1670,
      "visit": 1671,
      "0905809": 1672,
      "available": 1673,
      "choose": 1674,
      "b4": 1675,
      "bout": 1676,
      "cum": 1677,
      "des": 1678,
      "ext": 1679,
      "fight": 1680,
      "gl": 1681,
      "gone": 1682,
      "jan": 1683,
      "oper": 1684,
      "song": 1685,
      "sounds": 1686,
      "type": 1687,
      "##86": 1688,
      "##sl": 1689,
      "##my": 1690,
      "##toy": 1691,
      "##ij": 1692,
      "##ger": 1693,
      "##dn": 1694,
      "##ats": 1695,
      "##ated": 1696,
      "##ors": 1697,
      "##ars": 1698,
      "reason": 1699,
      "stand": 1700,
      "tel": 1701,
      "##eemed": 1702,
      "##urday": 1703,
      "child": 1704,
      "##une": 1705,
      "friday": 1706,
      "##cept": 1707,
      "def": 1708,
      "anytime": 1709,
      "mobiles": 1710,
      "poss": 1711,
      "sem": 1712,
      "smth": 1713,
      "needs": 1714,
      "mah": 1715,
      "mobileup": 1716,
      "exam": 1717,
      "unred": 1718,
      "##morning": 1719,
      "##redi": 1720,
      "winner": 1721,
      "dru": 1722,
      "college": 1723,
      "carlos": 1724,
      "follow": 1725,
      "saturday": 1726,
      "boytoy": 1727,
      "happened": 1728,
      "girls": 1729,
      "decided": 1730,
      "wonderful": 1731,
      "##corder": 1732,
      "crazy": 1733,
      "surpr": 1734,
      "takes": 1735,
      "##optout": 1736,
      "08000930705": 1737,
      "ni8": 1738,
      "identifier": 1739,
      "mobileupd8": 1740,
      "unredeemed": 1741,
      "25": 1742,
      "30": 1743,
      "350": 1744,
      "50": 1745,
      "69": 1746,
      "83": 1747,
      "bb": 1748,
      "bc": 1749,
      "cine": 1750,
      "don": 1751,
      "ey": 1752,
      "eg": 1753,
      "hm": 1754,
      "nope": 1755,
      "om": 1756,
      "oredi": 1757,
      "rain": 1758,
      "sou": 1759,
      "sil": 1760,
      "sea": 1761,
      "##een": 1762,
      "##25": 1763,
      "##hh": 1764,
      "##hu": 1765,
      "##uite": 1766,
      "##iving": 1767,
      "##nect": 1768,
      "##cs": 1769,
      "##cent": 1770,
      "##ped": 1771,
      "youll": 1772,
      "##ating": 1773,
      "##enna": 1774,
      "their": 1775,
      "ann": 1776,
      "##ett": 1777,
      "int": 1778,
      "cal": 1779,
      "requ": 1780,
      "##imited": 1781,
      "##ops": 1782,
      "near": 1783,
      "##oda": 1784,
      "chea": 1785,
      "chenna": 1786,
      "##the": 1787,
      "outside": 1788,
      "goodmorning": 1789,
      "abi": 1790,
      "wasnt": 1791,
      "lovely": 1792,
      "boo": 1793,
      "finally": 1794,
      "##osp": 1795,
      "used": 1796,
      "##22lands": 1797,
      "least": 1798,
      "camcorder": 1799,
      "##lier": 1800,
      "fucking": 1801,
      "disc": 1802,
      "player": 1803,
      "##love": 1804,
      "##45w": 1805,
      "mates": 1806,
      "comput": 1807,
      "project": 1808,
      "##3422lands": 1809,
      "wrong": 1810,
      "darlin": 1811,
      "frnds": 1812,
      "08000839": 1813,
      "mrng": 1814,
      "##gsuite": 1815,
      "correct": 1816,
      "##w1j": 1817,
      "chikku": 1818,
      "##lcome": 1819,
      "pretty": 1820,
      "operator": 1821,
      "08000839402": 1822,
      "##gsuite3422lands": 1823,
      "40": 1824,
      "bas": 1825,
      "bank": 1826,
      "cs": 1827,
      "fone": 1828,
      "ib": 1829,
      "lect": 1830,
      "mate": 1831,
      "own": 1832,
      "pm": 1833,
      "pete": 1834,
      "sony": 1835,
      "xx": 1836,
      "yr": 1837,
      "##vam": 1838,
      "##ext": 1839,
      "##31": 1840,
      "##46": 1841,
      "##750": 1842,
      "##mths": 1843,
      "##ire": 1844,
      "##nite": 1845,
      "##gin": 1846,
      "##care": 1847,
      "##61": 1848,
      "##ines": 1849,
      "##oun": 1850,
      "youve": 1851,
      "##eth": 1852,
      "case": 1853,
      "mem": 1854,
      "meant": 1855,
      "welcome": 1856,
      "##iment": 1857,
      "##chat": 1858,
      "doin": 1859,
      "hee": 1860,
      "lov": 1861,
      "loc": 1862,
      "sol": 1863,
      "teach": 1864,
      "##urb": 1865,
      "##urs": 1866,
      "##ested": 1867,
      "freemsg": 1868,
      "deal": 1869,
      "##uss": 1870,
      "spend": 1871,
      "seeing": 1872,
      "sort": 1873,
      "##xxx": 1874,
      "phones": 1875,
      "##ption": 1876,
      "##astic": 1877,
      "telling": 1878,
      "offers": 1879,
      "whole": 1880,
      "numbers": 1881,
      "##150ppm": 1882,
      "10p": 1883,
      "earlier": 1884,
      "party": 1885,
      "scream": 1886,
      "wkly": 1887,
      "##wards": 1888,
      "thinks": 1889,
      "support": 1890,
      "difficult": 1891,
      "hungry": 1892,
      "credit": 1893,
      "0906636": 1894,
      "##0871": 1895,
      "understand": 1896,
      "unlimited": 1897,
      "nyt": 1898,
      "course": 1899,
      "return": 1900,
      "fancy": 1901,
      "motor": 1902,
      "confirm": 1903,
      "chennai": 1904,
      "020": 1905,
      "bcoz": 1906,
      "bsl": 1907,
      "cop": 1908,
      "catch": 1909,
      "dnt": 1910,
      "deep": 1911,
      "eh": 1912,
      "etc": 1913,
      "fig": 1914,
      "fav": 1915,
      "gas": 1916,
      "gra": 1917,
      "giv": 1918,
      "gym": 1919,
      "hands": 1920,
      "joy": 1921,
      "ldn": 1922,
      "mad": 1923,
      "ru": 1924,
      "row": 1925,
      "sal": 1926,
      "sound": 1927,
      "side": 1928,
      "tra": 1929,
      "talking": 1930,
      "voice": 1931,
      "yar": 1932,
      "##vyl": 1933,
      "##bs": 1934,
      "##19": 1935,
      "##you": 1936,
      "##89": 1937,
      "##73": 1938,
      "##hn": 1939,
      "##less": 1940,
      "##mer": 1941,
      "##mar": 1942,
      "##msc": 1943,
      "##ned": 1944,
      "##not": 1945,
      "##gy": 1946,
      "##ring": 1947,
      "##ract": 1948,
      "##de": 1949,
      "##do": 1950,
      "##x3": 1951,
      "##fone": 1952,
      "##zed": 1953,
      "##ji": 1954,
      "##ative": 1955,
      "##vey": 1956,
      "##ote": 1957,
      "incl": 1958,
      "stup": 1959,
      "##alance": 1960,
      "caller": 1961,
      "lost": 1962,
      "area": 1963,
      "##unt": 1964,
      "within": 1965,
      "##504": 1966,
      "pray": 1967,
      "almo": 1968,
      "knew": 1969,
      "dep": 1970,
      "##ush": 1971,
      "super": 1972,
      "txts": 1973,
      "savam": 1974,
      "wats": 1975,
      "seen": 1976,
      "arr": 1977,
      "happiness": 1978,
      "phot": 1979,
      "##ulations": 1980,
      "adm": 1981,
      "acc": 1982,
      "black": 1983,
      "blue": 1984,
      "ago": 1985,
      "mayb": 1986,
      "felt": 1987,
      "john": 1988,
      "enter": 1989,
      "march": 1990,
      "months": 1991,
      "2003": 1992,
      "invited": 1993,
      "congratulations": 1994,
      "reading": 1995,
      "count": 1996,
      "couple": 1997,
      "hmmm": 1998,
      "##book": 1999,
      "87066": 2000,
      "##327": 2001,
      "paper": 2002,
      "valued": 2003,
      "currently": 2004,
      "christmas": 2005,
      "##45wq": 2006,
      "computer": 2007,
      "motorola": 2008,
      "bslvyl": 2009,
      "stupid": 2010,
      "almost": 2011,
      "savamob": 2012,
      "07": 2013,
      "air": 2014,
      "bar": 2015,
      "bud": 2016,
      "ce": 2017,
      "die": 2018,
      "ed": 2019,
      "eur": 2020,
      "fill": 2021,
      "fall": 2022,
      "fact": 2023,
      "father": 2024,
      "ge": 2025,
      "gay": 2026,
      "gee": 2027,
      "honey": 2028,
      "hosp": 2029,
      "kate": 2030,
      "mod": 2031,
      "mmm": 2032,
      "nah": 2033,
      "national": 2034,
      "pol": 2035,
      "rs": 2036,
      "sy": 2037,
      "sen": 2038,
      "sign": 2039,
      "ugh": 2040,
      "via": 2041,
      "wow": 2042,
      "##vr": 2043,
      "##by": 2044,
      "##42": 2045,
      "##84": 2046,
      "##822": 2047,
      "##200": 2048,
      "##uck": 2049,
      "##uary": 2050,
      "##ize": 2051,
      "##ience": 2052,
      "##rate": 2053,
      "##c1": 2054,
      "##az": 2055,
      "##ared": 2056,
      "##po": 2057,
      "##fer": 2058,
      "tor": 2059,
      "##lle": 2060,
      "##lly": 2061,
      "##itions": 2062,
      "##ics": 2063,
      "reward": 2064,
      "star": 2065,
      "stock": 2066,
      "call2": 2067,
      "##ider": 2068,
      "##key": 2069,
      "##ries": 2070,
      "lik": 2071,
      "gets": 2072,
      "frm": 2073,
      "press": 2074,
      "gotta": 2075,
      "sending": 2076,
      "safe": 2077,
      "self": 2078,
      "small": 2079,
      "##ptop": 2080,
      "##okes": 2081,
      "wah": 2082,
      "uni": 2083,
      "uncle": 2084,
      "askd": 2085,
      "truth": 2086,
      "##www": 2087,
      "08715": 2088,
      "blu": 2089,
      "connect": 2090,
      "grins": 2091,
      "ends": 2092,
      "090640": 2093,
      "foot": 2094,
      "##izz": 2095,
      "mark": 2096,
      "picking": 2097,
      "laptop": 2098,
      "090500": 2099,
      "bath": 2100,
      "darren": 2101,
      "swing": 2102,
      "compliment": 2103,
      "##phone": 2104,
      "questions": 2105,
      "##view": 2106,
      "supposed": 2107,
      "##frnd": 2108,
      "rental": 2109,
      "terms": 2110,
      "ipod": 2111,
      "information": 2112,
      "through": 2113,
      "tired": 2114,
      "disturb": 2115,
      "##fully": 2116,
      "charged": 2117,
      "extra": 2118,
      "semester": 2119,
      "surprise": 2120,
      "hospital": 2121,
      "complimentary": 2122,
      "077": 2123,
      "28": 2124,
      "36": 2125,
      "450": 2126,
      "cd": 2127,
      "cud": 2128,
      "gen": 2129,
      "hgsuite3422lands": 2130,
      "kick": 2131,
      "mm": 2132,
      "mis": 2133,
      "mist": 2134,
      "na": 2135,
      "nig": 2136,
      "red": 2137,
      "rand": 2138,
      "sar": 2139,
      "turn": 2140,
      "umm": 2141,
      "ve": 2142,
      "voda": 2143,
      "wine": 2144,
      "##vi": 2145,
      "##vin": 2146,
      "##ven": 2147,
      "##334": 2148,
      "##1win": 2149,
      "##49": 2150,
      "##ooth": 2151,
      "##mins": 2152,
      "##ross": 2153,
      "##rcvd": 2154,
      "##aly": 2155,
      "##6hl": 2156,
      "##fl": 2157,
      "##fect": 2158,
      "##91": 2159,
      "##wise": 2160,
      "##just": 2161,
      "##eral": 2162,
      "##erry": 2163,
      "##erence": 2164,
      "##lla": 2165,
      "##ord": 2166,
      "##reen": 2167,
      "store": 2168,
      "##ase": 2169,
      "weed": 2170,
      "##ality": 2171,
      "##ident": 2172,
      "##chard": 2173,
      "dogging": 2174,
      "##oph": 2175,
      "heard": 2176,
      "loved": 2177,
      "loads": 2178,
      "cance": 2179,
      "immed": 2180,
      "orchard": 2181,
      "noon": 2182,
      "##uring": 2183,
      "chang": 2184,
      "plans": 2185,
      "asking": 2186,
      "asap": 2187,
      "whenever": 2188,
      "spo": 2189,
      "somebody": 2190,
      "comin": 2191,
      "txting": 2192,
      "poor": 2193,
      "arg": 2194,
      "##ptone": 2195,
      "offic": 2196,
      "muz": 2197,
      "usf": 2198,
      "quick": 2199,
      "move": 2200,
      "087124": 2201,
      "wana": 2202,
      "cons": 2203,
      "rock": 2204,
      "feels": 2205,
      "##oooo": 2206,
      "shower": 2207,
      "discount": 2208,
      "entered": 2209,
      "activ": 2210,
      "checking": 2211,
      "prep": 2212,
      "prof": 2213,
      "info": 2214,
      "##room": 2215,
      "expect": 2216,
      "booked": 2217,
      "crave": 2218,
      "india": 2219,
      "monday": 2220,
      "cute": 2221,
      "clean": 2222,
      "slowly": 2223,
      "fantas": 2224,
      "warm": 2225,
      "httpwww": 2226,
      "hmv": 2227,
      "request": 2228,
      "abiola": 2229,
      "##w1j6hl": 2230,
      "##mscom": 2231,
      "##zedcouk": 2232,
      "cele": 2233,
      "call2optout": 2234,
      "850": 2235,
      "822": 2236,
      "ben": 2237,
      "bag": 2238,
      "bak": 2239,
      "cent": 2240,
      "cup": 2241,
      "dig": 2242,
      "esp": 2243,
      "gent": 2244,
      "gap": 2245,
      "gave": 2246,
      "ir": 2247,
      "king": 2248,
      "l8": 2249,
      "link": 2250,
      "met": 2251,
      "ntt": 2252,
      "ob": 2253,
      "oops": 2254,
      "rates": 2255,
      "rply": 2256,
      "sick": 2257,
      "tim": 2258,
      "tues": 2259,
      "ure": 2260,
      "uks": 2261,
      "wast": 2262,
      "woke": 2263,
      "yep": 2264,
      "##170": 2265,
      "##41": 2266,
      "##47": 2267,
      "##sms": 2268,
      "##hesh": 2269,
      "##uu": 2270,
      "##uc": 2271,
      "##uation": 2272,
      "##uhu": 2273,
      "##igh": 2274,
      "##n3": 2275,
      "##national": 2276,
      "##go": 2277,
      "##gr": 2278,
      "##resent": 2279,
      "##da": 2280,
      "##ding": 2281,
      "##don": 2282,
      "##cm": 2283,
      "##68": 2284,
      "##free": 2285,
      "##find": 2286,
      "##wee": 2287,
      "##ouk": 2288,
      "thurs": 2289,
      "##ergy": 2290,
      "##ings": 2291,
      "##etooth": 2292,
      "##ays": 2293,
      "##sth": 2294,
      "##lex": 2295,
      "whos": 2296,
      "ones": 2297,
      "forever": 2298,
      "rel": 2299,
      "reveal": 2300,
      "std": 2301,
      "street": 2302,
      "##asing": 2303,
      "myself": 2304,
      "callert": 2305,
      "doct": 2306,
      "sho": 2307,
      "##oper": 2308,
      "##ures": 2309,
      "chin": 2310,
      "gettin": 2311,
      "##irer": 2312,
      "pres": 2313,
      "worried": 2314,
      "##used": 2315,
      "knows": 2316,
      "spl": 2317,
      "sport": 2318,
      "clos": 2319,
      "##artment": 2320,
      "somewhere": 2321,
      "comm": 2322,
      "save": 2323,
      "water": 2324,
      "represent": 2325,
      "##shine": 2326,
      "##pty": 2327,
      "wap": 2328,
      "mach": 2329,
      "exact": 2330,
      "exper": 2331,
      "usual": 2332,
      "energy": 2333,
      "trust": 2334,
      "access": 2335,
      "across": 2336,
      "bless": 2337,
      "##aked": 2338,
      "convey": 2339,
      "leaves": 2340,
      "remove": 2341,
      "##150pm": 2342,
      "wishing": 2343,
      "10pmin": 2344,
      "otherwise": 2345,
      "empty": 2346,
      "reached": 2347,
      "bathe": 2348,
      "write": 2349,
      "btnational": 2350,
      "weekends": 2351,
      "moment": 2352,
      "opin": 2353,
      "different": 2354,
      "regard": 2355,
      "england": 2356,
      "hoping": 2357,
      "tickets": 2358,
      "fantastic": 2359,
      "##iately": 2360,
      "kids": 2361,
      "valentines": 2362,
      "film": 2363,
      "fixed": 2364,
      "glad": 2365,
      "defin": 2366,
      "drugs": 2367,
      "cheap": 2368,
      "lovable": 2369,
      "figure": 2370,
      "admirer": 2371,
      "bluetooth": 2372,
      "immediately": 2373,
      "##uhui": 2374,
      "callertune": 2375,
      "representative": 2376,
      "15": 2377,
      "2day": 2378,
      "2mor": 2379,
      "2nite": 2380,
      "4u": 2381,
      "871": 2382,
      "880": 2383,
      "900": 2384,
      "aint": 2385,
      "bx": 2386,
      "bid": 2387,
      "bur": 2388,
      "fre": 2389,
      "hw": 2390,
      "il": 2391,
      "je": 2392,
      "kan": 2393,
      "ll": 2394,
      "mir": 2395,
      "mode": 2396,
      "merry": 2397,
      "o2": 2398,
      "opp": 2399,
      "pan": 2400,
      "pop": 2401,
      "pound": 2402,
      "power": 2403,
      "ran": 2404,
      "round": 2405,
      "sam": 2406,
      "tough": 2407,
      "tamp": 2408,
      "vi": 2409,
      "wom": 2410,
      "xy": 2411,
      "##vies": 2412,
      "##boy": 2413,
      "##121": 2414,
      "##471": 2415,
      "##yal": 2416,
      "##250": 2417,
      "##hin": 2418,
      "##hope": 2419,
      "##hoo": 2420,
      "##ls": 2421,
      "##miss": 2422,
      "##ten": 2423,
      "##tmsg": 2424,
      "##text": 2425,
      "##io": 2426,
      "##ied": 2427,
      "##gu": 2428,
      "##gues": 2429,
      "##ror": 2430,
      "##rit": 2431,
      "tht": 2432,
      "thn": 2433,
      "##eric": 2434,
      "youd": 2435,
      "##llent": 2436,
      "##atar": 2437,
      "##orn": 2438,
      "##rec": 2439,
      "##ster": 2440,
      "##ised": 2441,
      "##ision": 2442,
      "meh": 2443,
      "itself": 2444,
      "gods": 2445,
      "recor": 2446,
      "ste": 2447,
      "sty": 2448,
      "wear": 2449,
      "weight": 2450,
      "##ali": 2451,
      "##alar": 2452,
      "doll": 2453,
      "heav": 2454,
      "loan": 2455,
      "loyal": 2456,
      "##acle": 2457,
      "##ldew": 2458,
      "no1": 2459,
      "nobody": 2460,
      "tem": 2461,
      "urself": 2462,
      "##vers": 2463,
      "##ecially": 2464,
      "##then": 2465,
      "frens": 2466,
      "##days": 2467,
      "pract": 2468,
      "worries": 2469,
      "##cellent": 2470,
      "dead": 2471,
      "##eagues": 2472,
      "##olog": 2473,
      "0845": 2474,
      "##ify": 2475,
      "boss": 2476,
      "seems": 2477,
      "arm": 2478,
      "arri": 2479,
      "##oken": 2480,
      "hiya": 2481,
      "tonite": 2482,
      "##age16": 2483,
      "expl": 2484,
      "thinkin": 2485,
      "user": 2486,
      "using": 2487,
      "messag": 2488,
      "087123": 2489,
      "##ffee": 2490,
      "accept": 2491,
      "blo": 2492,
      "blood": 2493,
      "##220": 2494,
      "seriously": 2495,
      "cond": 2496,
      "moral": 2497,
      "colleagues": 2498,
      "wwwget": 2499,
      "wwwldew": 2500,
      "apprec": 2501,
      "##4050": 2502,
      "custcare": 2503,
      "remind": 2504,
      "buying": 2505,
      "against": 2506,
      "others": 2507,
      "starts": 2508,
      "starting": 2509,
      "ending": 2510,
      "specially": 2511,
      "##what": 2512,
      "##when": 2513,
      "flight": 2514,
      "flag": 2515,
      "result": 2516,
      "charity": 2517,
      "##2468": 2518,
      "reaching": 2519,
      "sunday": 2520,
      "sunshine": 2521,
      "decide": 2522,
      "lazy": 2523,
      "brings": 2524,
      "staying": 2525,
      "lessons": 2526,
      "mrt": 2527,
      "wondering": 2528,
      "moms": 2529,
      "0906174": 2530,
      "hotel": 2531,
      "passwor": 2532,
      "sitting": 2533,
      "situation": 2534,
      "regist": 2535,
      "##from": 2536,
      "credits": 2537,
      "optout": 2538,
      "kinda": 2539,
      "11mths": 2540,
      "unless": 2541,
      "promise": 2542,
      "normal": 2543,
      "summer": 2544,
      "studying": 2545,
      "forwarded": 2546,
      "completely": 2547,
      "possible": 2548,
      "eyes": 2549,
      "south": 2550,
      "silent": 2551,
      "basic": 2552,
      "copy": 2553,
      "joys": 2554,
      "depend": 2555,
      "##c1n3": 2556,
      "random": 2557,
      "especially": 2558,
      "##week": 2559,
      "doctor": 2560,
      "definite": 2561,
      "tampa": 2562,
      "wwwgetzedcouk": 2563,
      "wwwldewcom": 2564,
      "##c1n3xx": 2565,
      "21": 2566,
      "2w": 2567,
      "400": 2568,
      "5w": 2569,
      "60": 2570,
      "ave": 2571,
      "aha": 2572,
      "alex": 2573,
      "bother": 2574,
      "cc": 2575,
      "creat": 2576,
      "dam": 2577,
      "dvd": 2578,
      "during": 2579,
      "egg": 2580,
      "fat": 2581,
      "fing": 2582,
      "fut": 2583,
      "gt": 2584,
      "giving": 2585,
      "har": 2586,
      "hang": 2587,
      "ic": 2588,
      "ice": 2589,
      "ju": 2590,
      "ji": 2591,
      "jen": 2592,
      "ly": 2593,
      "lin": 2594,
      "lac": 2595,
      "mand": 2596,
      "malar": 2597,
      "none": 2598,
      "ps": 2599,
      "pc": 2600,
      "pat": 2601,
      "pack": 2602,
      "pix": 2603,
      "pizz": 2604,
      "rre": 2605,
      "sip": 2606,
      "ts": 2607,
      "tn": 2608,
      "tat": 2609,
      "tar": 2610,
      "uve": 2611,
      "ufind": 2612,
      "vom": 2613,
      "wall": 2614,
      "wiv": 2615,
      "yrs": 2616,
      "##viously": 2617,
      "##ef": 2618,
      "##ead": 2619,
      "##bp": 2620,
      "##bin": 2621,
      "##ball": 2622,
      "##420": 2623,
      "##59": 2624,
      "##oon": 2625,
      "##hs": 2626,
      "##ham": 2627,
      "##let": 2628,
      "##mad": 2629,
      "##month": 2630,
      "##tf": 2631,
      "##tom": 2632,
      "##ient": 2633,
      "##ipt": 2634,
      "##nes": 2635,
      "##now": 2636,
      "##ness": 2637,
      "##gest": 2638,
      "##rw": 2639,
      "##cer": 2640,
      "##ccess": 2641,
      "##ai": 2642,
      "##app": 2643,
      "##ken": 2644,
      "##97": 2645,
      "##900": 2646,
      "##wx": 2647,
      "throw": 2648,
      "##erm": 2649,
      "##eria": 2650,
      "##ater": 2651,
      "##enc": 2652,
      "##ane": 2653,
      "##read": 2654,
      "##arn": 2655,
      "##ara": 2656,
      "##etch": 2657,
      "##ities": 2658,
      "##itled": 2659,
      "##stem": 2660,
      "##oting": 2661,
      "ins": 2662,
      "inside": 2663,
      "wheres": 2664,
      "iss": 2665,
      "weir": 2666,
      "##enty": 2667,
      "##ention": 2668,
      "dog": 2669,
      "door": 2670,
      "##rible": 2671,
      "loo": 2672,
      "los": 2673,
      "loves": 2674,
      "sofa": 2675,
      "##aces": 2676,
      "imp": 2677,
      "imag": 2678,
      "lif": 2679,
      "lift": 2680,
      "libr": 2681,
      "##urance": 2682,
      "##ecouk": 2683,
      "##unity": 2684,
      "##this": 2685,
      "##anta": 2686,
      "##irs": 2687,
      "coffee": 2688,
      "however": 2689,
      "freephone": 2690,
      "anymore": 2691,
      "goodnight": 2692,
      "##ume": 2693,
      "goto": 2694,
      "spent": 2695,
      "space": 2696,
      "sup": 2697,
      "success": 2698,
      "bold": 2699,
      "##9020": 2700,
      "sale": 2701,
      "high": 2702,
      "replying": 2703,
      "theyre": 2704,
      "##action": 2705,
      "lemm": 2706,
      "brand": 2707,
      "trouble": 2708,
      "buzz": 2709,
      "mood": 2710,
      "movies": 2711,
      "08719": 2712,
      "workin": 2713,
      "letter": 2714,
      "road": 2715,
      "rose": 2716,
      "drin": 2717,
      "dress": 2718,
      "slept": 2719,
      "##201": 2720,
      "sometimes": 2721,
      "##comuk": 2722,
      "picked": 2723,
      "wishes": 2724,
      "yahoo": 2725,
      "entitled": 2726,
      "##239": 2727,
      "pict": 2728,
      "planning": 2729,
      "specialcall": 2730,
      "paying": 2731,
      "##head": 2732,
      "longer": 2733,
      "slave": 2734,
      "##ava": 2735,
      "roomm": 2736,
      "bedroom": 2737,
      "hurts": 2738,
      "2004": 2739,
      "##onsmscom": 2740,
      "daddy": 2741,
      "polys": 2742,
      "polyph": 2743,
      "facebook": 2744,
      "joined": 2745,
      "meaning": 2746,
      "cheers": 2747,
      "awaiting": 2748,
      "08718726": 2749,
      "apartment": 2750,
      "87077": 2751,
      "wednes": 2752,
      "reference": 2753,
      "strong": 2754,
      "clear": 2755,
      "respond": 2756,
      "medical": 2757,
      "single": 2758,
      "training": 2759,
      "matches": 2760,
      "##358": 2761,
      "maxim": 2762,
      "valentine": 2763,
      "##60324": 2764,
      "fault": 2765,
      "090580945": 2766,
      "25p": 2767,
      "3030": 2768,
      "cinema": 2769,
      "omg": 2770,
      "##150ppmx3": 2771,
      "photo": 2772,
      "euro": 2773,
      "police": 2774,
      "0871520": 2775,
      "mistake": 2776,
      "nigeria": 2777,
      "cancel": 2778,
      "08712460324": 2779,
      "digital": 2780,
      "gentle": 2781,
      "tuesday": 2782,
      "experience": 2783,
      "btnationalrate": 2784,
      "opinion": 2785,
      "miracle": 2786,
      "style": 2787,
      "registered": 2788,
      "fingers": 2789,
      "future": 2790,
      "pizza": 2791,
      "rreveal": 2792,
      "library": 2793,
      "lemme": 2794,
      "wednesday": 2795,
      "1327": 2796,
      "24": 2797,
      "2u": 2798,
      "2m": 2799,
      "3g": 2800,
      "4th": 2801,
      "530": 2802,
      "62468": 2803,
      "aud": 2804,
      "ahead": 2805,
      "bot": 2806,
      "bun": 2807,
      "breat": 2808,
      "bare": 2809,
      "cuz": 2810,
      "cell": 2811,
      "fetch": 2812,
      "gar": 2813,
      "greet": 2814,
      "hr": 2815,
      "hon": 2816,
      "ign": 2817,
      "izz": 2818,
      "jst": 2819,
      "kb": 2820,
      "ki": 2821,
      "kill": 2822,
      "kall": 2823,
      "keral": 2824,
      "lm": 2825,
      "lad": 2826,
      "lond": 2827,
      "mp": 2828,
      "mil": 2829,
      "mother": 2830,
      "m26": 2831,
      "nit": 2832,
      "nim": 2833,
      "naked": 2834,
      "oc": 2835,
      "ori": 2836,
      "piss": 2837,
      "past": 2838,
      "page": 2839,
      "rather": 2840,
      "rcvd": 2841,
      "sight": 2842,
      "tit": 2843,
      "tir": 2844,
      "vl": 2845,
      "vill": 2846,
      "vers": 2847,
      "vikk": 2848,
      "wo": 2849,
      "wer": 2850,
      "wal": 2851,
      "wun": 2852,
      "walking": 2853,
      "yun": 2854,
      "yest": 2855,
      "yij": 2856,
      "##bt": 2857,
      "##bar": 2858,
      "##bed": 2859,
      "##box": 2860,
      "##biz": 2861,
      "##balance": 2862,
      "##33": 2863,
      "##323": 2864,
      "##17": 2865,
      "##yi": 2866,
      "##82": 2867,
      "##270": 2868,
      "##2stop": 2869,
      "##52": 2870,
      "##hy": 2871,
      "##hip": 2872,
      "##hind": 2873,
      "##lic": 2874,
      "##lish": 2875,
      "##ule": 2876,
      "##ured": 2877,
      "##uition": 2878,
      "##ml": 2879,
      "##iest": 2880,
      "##ians": 2881,
      "##nal": 2882,
      "##gar": 2883,
      "##gis": 2884,
      "##gas": 2885,
      "##gnt": 2886,
      "##good": 2887,
      "##rd": 2888,
      "##ric": 2889,
      "##rite": 2890,
      "##den": 2891,
      "##dle": 2892,
      "##ced": 2893,
      "##cial": 2894,
      "##ax": 2895,
      "##pleas": 2896,
      "##pobox": 2897,
      "##ky": 2898,
      "##ka": 2899,
      "##62": 2900,
      "##xh": 2901,
      "##946": 2902,
      "##will": 2903,
      "##ware": 2904,
      "##w45wq": 2905,
      "##ja": 2906,
      "##oup": 2907,
      "##ount": 2908,
      "##ering": 2909,
      "##erife": 2910,
      "towards": 2911,
      "##oring": 2912,
      "##only": 2913,
      "##ana": 2914,
      "hai": 2915,
      "##ots": 2916,
      "##ley": 2917,
      "##leep": 2918,
      "onto": 2919,
      "ish": 2920,
      "fore": 2921,
      "form": 2922,
      "rela": 2923,
      "styl": 2924,
      "weak": 2925,
      "##00220": 2926,
      "##ential": 2927,
      "##iding": 2928,
      "##idence": 2929,
      "shd": 2930,
      "share": 2931,
      "shuhui": 2932,
      "##riage": 2933,
      "##ghty": 2934,
      "##acter": 2935,
      "imma": 2936,
      "##ada": 2937,
      "notice": 2938,
      "tear": 2939,
      "team": 2940,
      "##ura": 2941,
      "chill": 2942,
      "##thin": 2943,
      "##antly": 2944,
      "cold": 2945,
      "##ility": 2946,
      "lttime": 2947,
      "present": 2948,
      "alrite": 2949,
      "worse": 2950,
      "##cement": 2951,
      "##usive": 2952,
      "##umb": 2953,
      "##ums": 2954,
      "##tery": 2955,
      "spree": 2956,
      "speed": 2957,
      "0808": 2958,
      "click": 2959,
      "##ific": 2960,
      "sucks": 2961,
      "repli": 2962,
      "arent": 2963,
      "affect": 2964,
      "mag": 2965,
      "##ects": 2966,
      "excellent": 2967,
      "awake": 2968,
      "pleasure": 2969,
      "##roww1j6hl": 2970,
      "quality": 2971,
      "##uding": 2972,
      "lead": 2973,
      "learn": 2974,
      "bro": 2975,
      "track": 2976,
      "babes": 2977,
      "bucks": 2978,
      "bugis": 2979,
      "0871471": 2980,
      "blank": 2981,
      "##oydon": 2982,
      "##have": 2983,
      "camp": 2984,
      "cashin": 2985,
      "cashbalance": 2986,
      "##20201": 2987,
      "feb": 2988,
      "showing": 2989,
      "##ape": 2990,
      "##406": 2991,
      "grand": 2992,
      "remain": 2993,
      "idea": 2994,
      "players": 2995,
      "host": 2996,
      "holla": 2997,
      "##sson": 2998,
      "##104": 2999,
      "10am": 3000,
      "persons": 3001,
      "flirt": 3002,
      "matter": 3003,
      "character": 3004,
      "married": 3005,
      "marriage": 3006,
      "prefer": 3007,
      "receipt": 3008,
      "costa": 3009,
      "eatin": 3010,
      "eating": 3011,
      "planned": 3012,
      "cr9": 3013,
      "croydon": 3014,
      "##778": 3015,
      "process": 3016,
      "yoga": 3017,
      "happens": 3018,
      "happening": 3019,
      "10000": 3020,
      "become": 3021,
      "funny": 3022,
      "##claim": 3023,
      "##iffs": 3024,
      "hurry": 3025,
      "paid": 3026,
      "battery": 3027,
      "darling": 3028,
      "sky": 3029,
      "sk38": 3030,
      "##maid": 3031,
      "##ensive": 3032,
      "0906170": 3033,
      "delivered": 3034,
      "running": 3035,
      "login": 3036,
      "interest": 3037,
      "internet": 3038,
      "interested": 3039,
      "080029": 3040,
      "holding": 3041,
      "tenerife": 3042,
      "respon": 3043,
      "kept": 3044,
      "thru": 3045,
      "recently": 3046,
      "murderer": 3047,
      "murdered": 3048,
      "20p": 3049,
      "midnight": 3050,
      "instead": 3051,
      "horny": 3052,
      "menu": 3053,
      "sigh": 3054,
      "excuse": 3055,
      "january": 3056,
      "following": 3057,
      "833": 3058,
      "omw": 3059,
      "announ": 3060,
      "discuss": 3061,
      "member": 3062,
      "members": 3063,
      "##087187": 3064,
      "favour": 3065,
      "accident": 3066,
      "country": 3067,
      "geeee": 3068,
      "model": 3069,
      "system": 3070,
      "sense": 3071,
      "torch": 3072,
      "liked": 3073,
      "36504": 3074,
      "umma": 3075,
      "##1win150ppmx3": 3076,
      "changed": 3077,
      "celebr": 3078,
      "85023": 3079,
      "82277": 3080,
      "irrit": 3081,
      "waste": 3082,
      "bx420": 3083,
      "viol": 3084,
      "thnk": 3085,
      "heavy": 3086,
      "loyalty": 3087,
      "arrive": 3088,
      "08712300220": 3089,
      "appreciate": 3090,
      "password": 3091,
      "depends": 3092,
      "definitely": 3093,
      "5wb": 3094,
      "damn": 3095,
      "malaria": 3096,
      "insurance": 3097,
      "looks": 3098,
      "imagine": 3099,
      "maximize": 3100,
      "izzit": 3101,
      "mp3": 3102,
      "vikky": 3103,
      "yijue": 3104,
      "##please": 3105,
      "relax": 3106,
      "lttimegt": 3107,
      "sk38xh": 3108,
      "078": 3109,
      "1h": 3110,
      "2p": 3111,
      "35": 3112,
      "730": 3113,
      "7250": 3114,
      "85": 3115,
      "89": 3116,
      "8th": 3117,
      "830": 3118,
      "888": 3119,
      "860": 3120,
      "ach": 3121,
      "aath": 3122,
      "bf": 3123,
      "ban": 3124,
      "bow": 3125,
      "brow": 3126,
      "bought": 3127,
      "body": 3128,
      "balance": 3129,
      "cn": 3130,
      "cry": 3131,
      "cart": 3132,
      "due": 3133,
      "dint": 3134,
      "ec": 3135,
      "eer": 3136,
      "eight": 3137,
      "east": 3138,
      "fb": 3139,
      "five": 3140,
      "freak": 3141,
      "fyi": 3142,
      "gm": 3143,
      "grow": 3144,
      "hl": 3145,
      "hill": 3146,
      "hrs": 3147,
      "iam": 3148,
      "jam": 3149,
      "lim": 3150,
      "lady": 3151,
      "m8": 3152,
      "mt": 3153,
      "mc": 3154,
      "main": 3155,
      "nv": 3156,
      "nor": 3157,
      "nxt": 3158,
      "nau": 3159,
      "pin": 3160,
      "pot": 3161,
      "pil": 3162,
      "puss": 3163,
      "sed": 3164,
      "sli": 3165,
      "tal": 3166,
      "tour": 3167,
      "tty": 3168,
      "tyl": 3169,
      "ull": 3170,
      "ver": 3171,
      "var": 3172,
      "vry": 3173,
      "vary": 3174,
      "wnt": 3175,
      "west": 3176,
      "w45wq": 3177,
      "ym": 3178,
      "yay": 3179,
      "zed": 3180,
      "##band": 3181,
      "##130": 3182,
      "##177": 3183,
      "##434": 3184,
      "##7pm": 3185,
      "##278": 3186,
      "##oh": 3187,
      "##off": 3188,
      "##oint": 3189,
      "##sn": 3190,
      "##sen": 3191,
      "##send": 3192,
      "##lace": 3193,
      "##ug": 3194,
      "##may": 3195,
      "##mail": 3196,
      "##tr": 3197,
      "##take": 3198,
      "##ii": 3199,
      "##iot": 3200,
      "##ipp": 3201,
      "##ired": 3202,
      "##gam": 3203,
      "##res": 3204,
      "##rnd": 3205,
      "##cri": 3206,
      "##cade": 3207,
      "##ale": 3208,
      "##x150p": 3209,
      "##fo": 3210,
      "##fing": 3211,
      "##fri": 3212,
      "##fort": 3213,
      "##wt": 3214,
      "##wa": 3215,
      "##zes": 3216,
      "##que": 3217,
      "toclaim": 3218,
      "##atre": 3219,
      "##eng": 3220,
      "##orge": 3221,
      "##orrow": 3222,
      "##onic": 3223,
      "##anth": 3224,
      "##esus": 3225,
      "theatre": 3226,
      "##eted": 3227,
      "ham": 3228,
      "inch": 3229,
      "##ises": 3230,
      "mei": 3231,
      "melle": 3232,
      "review": 3233,
      "beer": 3234,
      "belo": 3235,
      "behind": 3236,
      "stom": 3237,
      "stri": 3238,
      "stra": 3239,
      "station": 3240,
      "stress": 3241,
      "weather": 3242,
      "webs": 3243,
      "##als": 3244,
      "##chi": 3245,
      "##chin": 3246,
      "##illi": 3247,
      "##ril": 3248,
      "##erem": 3249,
      "cancer": 3250,
      "soft": 3251,
      "lion": 3252,
      "tea": 3253,
      "tech": 3254,
      "teasing": 3255,
      "##amps": 3256,
      "ate": 3257,
      "atl": 3258,
      "##und": 3259,
      "##sex": 3260,
      "##ionate": 3261,
      "willing": 3262,
      "plenty": 3263,
      "asleep": 3264,
      "cover": 3265,
      "amaz": 3266,
      "prab": 3267,
      "howz": 3268,
      "works": 3269,
      "dey": 3270,
      "dem": 3271,
      "spoke": 3272,
      "closed": 3273,
      "texting": 3274,
      "boys": 3275,
      "txtau": 3276,
      "report": 3277,
      "sory": 3278,
      "arcade": 3279,
      "##ulation": 3280,
      "dai": 3281,
      "daily": 3282,
      "except": 3283,
      "shell": 3284,
      "pleased": 3285,
      "usually": 3286,
      "askin": 3287,
      "envel": 3288,
      "leg": 3289,
      "brain": 3290,
      "broth": 3291,
      "brilli": 3292,
      "nights": 3293,
      "manage": 3294,
      "##lfrnd": 3295,
      "evng": 3296,
      "buff": 3297,
      "moan": 3298,
      "wond": 3299,
      "adult": 3300,
      "wherever": 3301,
      "wind": 3302,
      "contract": 3303,
      "##2210": 3304,
      "##akes": 3305,
      "shouldnt": 3306,
      "serious": 3307,
      "role": 3308,
      "drun": 3309,
      "wwwtxt": 3310,
      "wwwsms": 3311,
      "group": 3312,
      "keeping": 3313,
      "surely": 3314,
      "ide": 3315,
      "##150ptone": 3316,
      "ended": 3317,
      "joking": 3318,
      "hook": 3319,
      "##ments": 3320,
      "##nercom": 3321,
      "##whats": 3322,
      "couldnt": 3323,
      "##10mins": 3324,
      "##888": 3325,
      "personal": 3326,
      "fool": 3327,
      "flat": 3328,
      "flower": 3329,
      "earth": 3330,
      "girlfrnd": 3331,
      "marry": 3332,
      "prem": 3333,
      "##876": 3334,
      "cost150pm": 3335,
      "##pro": 3336,
      "embar": 3337,
      "bitch": 3338,
      "sunny": 3339,
      "1000s": 3340,
      "checked": 3341,
      "087014": 3342,
      "0870750": 3343,
      "added": 3344,
      "ahmad": 3345,
      "##club": 3346,
      "problems": 3347,
      "lookin": 3348,
      "died": 3349,
      "pobox36": 3350,
      "pobox84": 3351,
      "pobox334": 3352,
      "0905000": 3353,
      "dark": 3354,
      "simply": 3355,
      "expensive": 3356,
      "avo": 3357,
      "attend": 3358,
      "putting": 3359,
      "##382": 3360,
      "inviting": 3361,
      "posted": 3362,
      "setting": 3363,
      "090612210": 3364,
      "hunny": 3365,
      "indian": 3366,
      "confidence": 3367,
      "holder": 3368,
      "fullonsmscom": 3369,
      "##28100": 3370,
      "##winnercom": 3371,
      "aftr": 3372,
      "##subscription": 3373,
      "meds": 3374,
      "ticket": 3375,
      "informed": 3376,
      "age16": 3377,
      "norm150ptone": 3378,
      "raj": 3379,
      "listening": 3380,
      "aiyo": 3381,
      "aiyah": 3382,
      "nature": 3383,
      "##iction": 3384,
      "087124050": 3385,
      "directly": 3386,
      "##ney": 3387,
      "advance": 3388,
      "##mobile": 3389,
      "loverboy": 3390,
      "max10mins": 3391,
      "exciting": 3392,
      "standard": 3393,
      "children": 3394,
      "drug": 3395,
      "raining": 3396,
      "40gb": 3397,
      "local": 3398,
      "screaming": 3399,
      "gives": 3400,
      "handset": 3401,
      "##ringt": 3402,
      "##504w45wq": 3403,
      "arrange": 3404,
      "budget": 3405,
      "stockport": 3406,
      "09050000": 3407,
      "090500900": 3408,
      "turns": 3409,
      "vodafone": 3410,
      "argum": 3411,
      "official": 3412,
      "consider": 3413,
      "activate": 3414,
      "fantasies": 3415,
      "httpwwwura": 3416,
      "l8r": 3417,
      "relation": 3418,
      "exactly": 3419,
      "regards": 3420,
      "084528100": 3421,
      "flights": 3422,
      "created": 3423,
      "lacsth": 3424,
      "sipix": 3425,
      "tncs": 3426,
      "tariffs": 3427,
      "vomit": 3428,
      "weird": 3429,
      "087152036": 3430,
      "barely": 3431,
      "kallis": 3432,
      "lmao": 3433,
      "ladies": 3434,
      "london": 3435,
      "nimya": 3436,
      "occ": 3437,
      "version": 3438,
      "replied": 3439,
      "campus": 3440,
      "announcement": 3441,
      "86021": 3442,
      "naughty": 3443,
      "pilates": 3444,
      "pussy": 3445,
      "ttyl": 3446,
      "##friend": 3447,
      "straight": 3448,
      "amazing": 3449,
      "txtauct": 3450,
      "envelope": 3451,
      "wwwsmsac": 3452,
      "087014170": 3453,
      "08707509020": 3454,
      "09050090044": 3455,
      "httpwwwurawinnercom": 3456,
      "114": 3457,
      "1x150p": 3458,
      "2stop": 3459,
      "2optout": 3460,
      "3rd": 3461,
      "44": 3462,
      "5we": 3463,
      "890": 3464,
      "855": 3465,
      "841": 3466,
      "9am": 3467,
      "aunt": 3468,
      "ba": 3469,
      "bin": 3470,
      "bright": 3471,
      "cu": 3472,
      "ct": 3473,
      "cbe": 3474,
      "city": 3475,
      "cds": 3476,
      "du": 3477,
      "dou": 3478,
      "ded": 3479,
      "dere": 3480,
      "dry": 3481,
      "dload": 3482,
      "es": 3483,
      "eff": 3484,
      "esc": 3485,
      "ess": 3486,
      "fish": 3487,
      "fli": 3488,
      "fail": 3489,
      "flo": 3490,
      "green": 3491,
      "gbp": 3492,
      "hv": 3493,
      "hate": 3494,
      "ja": 3495,
      "jack": 3496,
      "jokes": 3497,
      "jord": 3498,
      "java": 3499,
      "jesus": 3500,
      "lv": 3501,
      "ls": 3502,
      "lou": 3503,
      "lone": 3504,
      "lab": 3505,
      "mac": 3506,
      "mite": 3507,
      "mast": 3508,
      "mths": 3509,
      "nw": 3510,
      "nan": 3511,
      "nic": 3512,
      "ov": 3513,
      "ol": 3514,
      "oz": 3515,
      "pt": 3516,
      "pi": 3517,
      "pong": 3518,
      "pig": 3519,
      "pred": 3520,
      "ppm": 3521,
      "ppl": 3522,
      "pple": 3523,
      "push": 3524,
      "qatar": 3525,
      "rd": 3526,
      "rad": 3527,
      "rum": 3528,
      "ride": 3529,
      "rays": 3530,
      "site": 3531,
      "squ": 3532,
      "sym": 3533,
      "tb": 3534,
      "tis": 3535,
      "tab": 3536,
      "vij": 3537,
      "vote": 3538,
      "wet": 3539,
      "wis": 3540,
      "xchat": 3541,
      "yu": 3542,
      "yan": 3543,
      "##vis": 3544,
      "##vious": 3545,
      "##ex": 3546,
      "##ees": 3547,
      "##bb": 3548,
      "##bab": 3549,
      "##350": 3550,
      "##380": 3551,
      "##122": 3552,
      "##1min": 3553,
      "##43": 3554,
      "##450": 3555,
      "##488": 3556,
      "##412": 3557,
      "##your": 3558,
      "##yrs": 3559,
      "##899": 3560,
      "##790": 3561,
      "##2a": 3562,
      "##230": 3563,
      "##53": 3564,
      "##ost": 3565,
      "##si": 3566,
      "##set": 3567,
      "##lk": 3568,
      "##ler": 3569,
      "##life": 3570,
      "##ux": 3571,
      "##uly": 3572,
      "##ming": 3573,
      "##tel": 3574,
      "##ners": 3575,
      "##rg": 3576,
      "##rc": 3577,
      "##rom": 3578,
      "##rol": 3579,
      "##di": 3580,
      "##dom": 3581,
      "##con": 3582,
      "##ces": 3583,
      "##code": 3584,
      "##ae": 3585,
      "##aid": 3586,
      "##airs": 3587,
      "##par": 3588,
      "##pot": 3589,
      "##pod": 3590,
      "##ki": 3591,
      "##khesh": 3592,
      "##63": 3593,
      "##65": 3594,
      "##xy": 3595,
      "##fic": 3596,
      "##wc1n3xx": 3597,
      "##ining": 3598,
      "##incl": 3599,
      "##erally": 3600,
      "##lled": 3601,
      "##enow": 3602,
      "##org": 3603,
      "##ores": 3604,
      "##oned": 3605,
      "##onds": 3606,
      "##anade": 3607,
      "##ether": 3608,
      "##itch": 3609,
      "##ston": 3610,
      "##oty": 3611,
      "##isf": 3612,
      "cafe": 3613,
      "cabin": 3614,
      "caken": 3615,
      "white": 3616,
      "whether": 3617,
      "##ute": 3618,
      "ital": 3619,
      "gold": 3620,
      "goog": 3621,
      "##icks": 3622,
      "reco": 3623,
      "realy": 3624,
      "bell": 3625,
      "begin": 3626,
      "belly": 3627,
      "step": 3628,
      "weve": 3629,
      "##0000": 3630,
      "callers": 3631,
      "##child": 3632,
      "doc": 3633,
      "dogg": 3634,
      "sha": 3635,
      "shor": 3636,
      "shipp": 3637,
      "##opic": 3638,
      "hel": 3639,
      "cannot": 3640,
      "social": 3641,
      "##acks": 3642,
      "living": 3643,
      "necess": 3644,
      "noline": 3645,
      "note": 3646,
      "urgnt": 3647,
      "##ural": 3648,
      "chick": 3649,
      "choice": 3650,
      "##very": 3651,
      "##ung": 3652,
      "##unde": 3653,
      "##ther": 3654,
      "##ants": 3655,
      "##antic": 3656,
      "fren": 3657,
      "##ppy": 3658,
      "##irty": 3659,
      "places": 3660,
      "asks": 3661,
      "cook": 3662,
      "upload": 3663,
      "upgr": 3664,
      "##ilos": 3665,
      "amt": 3666,
      "among": 3667,
      "amount": 3668,
      "proper": 3669,
      "alert": 3670,
      "##ately": 3671,
      "anybody": 3672,
      "allow": 3673,
      "allah": 3674,
      "##uses": 3675,
      "##ump": 3676,
      "spell": 3677,
      "guide": 3678,
      "suite": 3679,
      "suff": 3680,
      "sugg": 3681,
      "##arden": 3682,
      "boston": 3683,
      "some1": 3684,
      "didt": 3685,
      "pos": 3686,
      "pock": 3687,
      "sept": 3688,
      "season": 3689,
      "smart": 3690,
      "smiles": 3691,
      "latr": 3692,
      "##icket": 3693,
      "stopped": 3694,
      "affa": 3695,
      "##ular": 3696,
      "tells": 3697,
      "waking": 3698,
      "150ptone": 3699,
      "09099": 3700,
      "exha": 3701,
      "express": 3702,
      "##rakhesh": 3703,
      "##ield": 3704,
      "unso": 3705,
      "unable": 3706,
      "unsub": 3707,
      "enem": 3708,
      "quit": 3709,
      "quote": 3710,
      "quoting": 3711,
      "leon": 3712,
      "broke": 3713,
      "truly": 3714,
      "hasnt": 3715,
      "build": 3716,
      "moon": 3717,
      "##pmsg": 3718,
      "##ortunity": 3719,
      "087178": 3720,
      "hopefully": 3721,
      "wins": 3722,
      "##planade": 3723,
      "##well": 3724,
      "ages": 3725,
      "##akhesh": 3726,
      "##assed": 3727,
      "const": 3728,
      "concent": 3729,
      "convin": 3730,
      "morn": 3731,
      "##ooo": 3732,
      "##list": 3733,
      "themob": 3734,
      "somethin": 3735,
      "wwwcomuk": 3736,
      "wwwringt": 3737,
      "wouldnt": 3738,
      "perf": 3739,
      "appoint": 3740,
      "cars": 3741,
      "cares": 3742,
      "contacted": 3743,
      "hella": 3744,
      "playing": 3745,
      "joke": 3746,
      "##why": 3747,
      "##ssss": 3748,
      "##10i": 3749,
      "partner": 3750,
      "satisf": 3751,
      "peace": 3752,
      "scot": 3753,
      "scared": 3754,
      "##ized": 3755,
      "costs": 3756,
      "minuts": 3757,
      "plane": 3758,
      "80062": 3759,
      "cross": 3760,
      "birds": 3761,
      "yogas": 3762,
      "rooms": 3763,
      "twice": 3764,
      "december": 3765,
      "law": 3766,
      "laid": 3767,
      "videoph": 3768,
      "looked": 3769,
      "diet": 3770,
      "##182": 3771,
      "150pmtmsg": 3772,
      "boring": 3773,
      "frndship": 3774,
      "##555": 3775,
      "selection": 3776,
      "ringtones": 3777,
      "videochat": 3778,
      "sett": 3779,
      "09061790": 3780,
      "surfing": 3781,
      "calls1min": 3782,
      "##taz": 3783,
      "totally": 3784,
      "interview": 3785,
      "student": 3786,
      "##xxxxx": 3787,
      "##xxxxxxx": 3788,
      "##ertain": 3789,
      "rentl": 3790,
      "##15h": 3791,
      "08718720201": 3792,
      "apolog": 3793,
      "april": 3794,
      "##696": 3795,
      "##gnge": 3796,
      "english": 3797,
      "dropped": 3798,
      "error": 3799,
      "##tcbiz": 3800,
      "ip4": 3801,
      "searching": 3802,
      "key": 3803,
      "singles": 3804,
      "##742": 3805,
      "##aaaa": 3806,
      "150pmsgrcvd": 3807,
      "gals": 3808,
      "##gbp": 3809,
      "##gbpm": 3810,
      "advice": 3811,
      "horrible": 3812,
      "selling": 3813,
      "current": 3814,
      "purch": 3815,
      "##erental": 3816,
      "transaction": 3817,
      "charges": 3818,
      "fighting": 3819,
      "childish": 3820,
      "possess": 3821,
      "exams": 3822,
      "bcm": 3823,
      "intro": 3824,
      "cheaper": 3825,
      "##theart": 3826,
      "boost": 3827,
      "ibh": 3828,
      "sonyeric": 3829,
      "##ginal": 3830,
      "##ounge": 3831,
      "locations": 3832,
      "returns": 3833,
      "favor": 3834,
      "grav": 3835,
      "travel": 3836,
      "##marrow": 3837,
      "inclusive": 3838,
      "arrested": 3839,
      "photos": 3840,
      "airport": 3841,
      "mmmmm": 3842,
      "##2004": 3843,
      "connection": 3844,
      "##rcvd18": 3845,
      "spook": 3846,
      "expecting": 3847,
      "fantasy": 3848,
      "centre": 3849,
      "obviously": 3850,
      "timing": 3851,
      "##ighb": 3852,
      "thursday": 3853,
      "revealed": 3854,
      "chinese": 3855,
      "common": 3856,
      "kano": 3857,
      "opportunity": 3858,
      "woman": 3859,
      "records": 3860,
      "dollars": 3861,
      "armand": 3862,
      "conditions": 3863,
      "results": 3864,
      "basically": 3865,
      "wwwldewcom1win150ppmx3": 3866,
      "jiu": 3867,
      "linerental": 3868,
      "##tomorrow": 3869,
      "issues": 3870,
      "drinks": 3871,
      "pictures": 3872,
      "roommates": 3873,
      "polyphonic": 3874,
      "08718726270": 3875,
      "euro2004": 3876,
      "2mrw": 3877,
      "buns": 3878,
      "ignore": 3879,
      "kerala": 3880,
      "original": 3881,
      "pissed": 3882,
      "village": 3883,
      "stylish": 3884,
      "hostel": 3885,
      "interesting": 3886,
      "sighs": 3887,
      "3510i": 3888,
      "cartoon": 3889,
      "eerie": 3890,
      "gmgnge": 3891,
      "nvm": 3892,
      "tyler": 3893,
      "##27870": 3894,
      "##orgeous": 3895,
      "website": 3896,
      "brilliant": 3897,
      "pobox36504w45wq": 3898,
      "argument": 3899,
      "08701417012": 3900,
      "1x150pwk": 3901,
      "jazz": 3902,
      "piec": 3903,
      "pongal": 3904,
      "vijay": 3905,
      "italian": 3906,
      "google": 3907,
      "suggest": 3908,
      "090997": 3909,
      "exhaust": 3910,
      "unsold": 3911,
      "wwwcomuknet": 3912,
      "yogasana": 3913,
      "videophones": 3914,
      "sonyericsson": 3915,
      "wwwldewcom1win150ppmx3age16": 3916,
      "071": 3917,
      "070": 3918,
      "145": 3919,
      "195": 3920,
      "2morrow": 3921,
      "3d": 3922,
      "3w": 3923,
      "3q": 3924,
      "3wk": 3925,
      "3mins": 3926,
      "3gbp": 3927,
      "45": 3928,
      "4in": 3929,
      "4get": 3930,
      "4742": 3931,
      "5th": 3932,
      "542": 3933,
      "6th": 3934,
      "630": 3935,
      "6hrs": 3936,
      "75": 3937,
      "7th": 3938,
      "786": 3939,
      "87": 3940,
      "836": 3941,
      "875": 3942,
      "9ae": 3943,
      "ay": 3944,
      "aer": 3945,
      "ast": 3946,
      "aut": 3947,
      "aun": 3948,
      "bi": 3949,
      "bay": 3950,
      "ball": 3951,
      "bish": 3952,
      "bah": 3953,
      "bang": 3954,
      "cw": 3955,
      "cat": 3956,
      "cree": 3957,
      "cream": 3958,
      "dent": 3959,
      "dub": 3960,
      "div": 3961,
      "danc": 3962,
      "diction": 3963,
      "dirty": 3964,
      "ee": 3965,
      "elect": 3966,
      "fly": 3967,
      "fur": 3968,
      "file": 3969,
      "four": 3970,
      "fift": 3971,
      "files": 3972,
      "fire": 3973,
      "fml": 3974,
      "gim": 3975,
      "gorgeous": 3976,
      "hus": 3977,
      "iz": 3978,
      "iq": 3979,
      "jess": 3980,
      "jok": 3981,
      "june": 3982,
      "jada": 3983,
      "kal": 3984,
      "kus": 3985,
      "kett": 3986,
      "low": 3987,
      "lang": 3988,
      "mn": 3989,
      "mk": 3990,
      "mes": 3991,
      "mas": 3992,
      "mall": 3993,
      "m22": 3994,
      "mass": 3995,
      "non": 3996,
      "nag": 3997,
      "ow": 3998,
      "ore": 3999,
      "pg": 4000,
      "pen": 4001,
      "pod": 4002,
      "pend": 4003,
      "pie": 4004,
      "port": 4005,
      "pages": 4006,
      "pull": 4007,
      "porn": 4008,
      "rc": 4009,
      "ren": 4010,
      "rom": 4011,
      "rally": 4012,
      "rude": 4013,
      "rush": 4014,
      "sac": 4015,
      "sore": 4016,
      "sour": 4017,
      "six": 4018,
      "sens": 4019,
      "santa": 4020,
      "tt": 4021,
      "tk": 4022,
      "tre": 4023,
      "tay": 4024,
      "tree": 4025,
      "tuition": 4026,
      "ult": 4027,
      "vir": 4028,
      "vip": 4029,
      "w1": 4030,
      "w11": 4031,
      "wyl": 4032,
      "wc1n3xx": 4033,
      "wtf": 4034,
      "ye": 4035,
      "yer": 4036,
      "yum": 4037,
      "yell": 4038,
      "zo": 4039,
      "##val": 4040,
      "##vtin": 4041,
      "##bu": 4042,
      "##bi": 4043,
      "##bod": 4044,
      "##back": 4045,
      "##bud": 4046,
      "##bles": 4047,
      "##345": 4048,
      "##3uz": 4049,
      "##190": 4050,
      "##180": 4051,
      "##1wx": 4052,
      "##48": 4053,
      "##440": 4054,
      "##72": 4055,
      "##76": 4056,
      "##7q": 4057,
      "##27": 4058,
      "##2000": 4059,
      "##288": 4060,
      "##oc": 4061,
      "##sb": 4062,
      "##sk": 4063,
      "##some": 4064,
      "##smore": 4065,
      "##hi": 4066,
      "##hp": 4067,
      "##here": 4068,
      "##hgsuite3422lands": 4069,
      "##live": 4070,
      "##lets": 4071,
      "##uce": 4072,
      "##uitions": 4073,
      "##mp": 4074,
      "##mon": 4075,
      "##mit": 4076,
      "##mess": 4077,
      "##tain": 4078,
      "##times": 4079,
      "##ius": 4080,
      "##nit": 4081,
      "##nam": 4082,
      "##nical": 4083,
      "##n7q": 4084,
      "##ged": 4085,
      "##give": 4086,
      "##rone": 4087,
      "##ros": 4088,
      "##rw1": 4089,
      "##ruth": 4090,
      "##dat": 4091,
      "##dont": 4092,
      "##cy": 4093,
      "##awk": 4094,
      "##part": 4095,
      "##pect": 4096,
      "##pose": 4097,
      "##xj": 4098,
      "##fu": 4099,
      "##fc": 4100,
      "##96": 4101,
      "##910": 4102,
      "##wd": 4103,
      "##wp": 4104,
      "##wat": 4105,
      "##with": 4106,
      "##jith": 4107,
      "##ini": 4108,
      "##inder": 4109,
      "##outh": 4110,
      "thes": 4111,
      "three": 4112,
      "thro": 4113,
      "thts": 4114,
      "##erv": 4115,
      "##ernal": 4116,
      "youcle": 4117,
      "##eno": 4118,
      "##enge": 4119,
      "##ann": 4120,
      "##anna": 4121,
      "##real": 4122,
      "##omber": 4123,
      "theory": 4124,
      "##ark": 4125,
      "##arily": 4126,
      "##arently": 4127,
      "##edy": 4128,
      "##eds": 4129,
      "##edule": 4130,
      "ant": 4131,
      "##etic": 4132,
      "##etlp": 4133,
      "##etition": 4134,
      "##aya": 4135,
      "##ituitions": 4136,
      "##sto": 4137,
      "##stituitions": 4138,
      "##leys": 4139,
      "##ising": 4140,
      "cast": 4141,
      "capt": 4142,
      "whom": 4143,
      "mel": 4144,
      "meal": 4145,
      "oni": 4146,
      "itpls": 4147,
      "goal": 4148,
      "goss": 4149,
      "govtin": 4150,
      "##icate": 4151,
      "reas": 4152,
      "releas": 4153,
      "beg": 4154,
      "becoz": 4155,
      "stick": 4156,
      "##asure": 4157,
      "often": 4158,
      "web": 4159,
      "##004": 4160,
      "##entry": 4161,
      "##idge": 4162,
      "##char": 4163,
      "shr": 4164,
      "shld": 4165,
      "shout": 4166,
      "shame": 4167,
      "shirt": 4168,
      "shij": 4169,
      "height": 4170,
      "##rie": 4171,
      "loss": 4172,
      "##acy": 4173,
      "impress": 4174,
      "lie": 4175,
      "liver": 4176,
      "lives": 4177,
      "neck": 4178,
      "oru": 4179,
      "nos": 4180,
      "teeth": 4181,
      "##eem": 4182,
      "urn": 4183,
      "##ury": 4184,
      "##url": 4185,
      "##urch": 4186,
      "cha": 4187,
      "chall": 4188,
      "church": 4189,
      "##ams": 4190,
      "##ama": 4191,
      "##amed": 4192,
      "##amas": 4193,
      "##ampt": 4194,
      "##ender": 4195,
      "##under": 4196,
      "##unel": 4197,
      "butt": 4198,
      "##thy": 4199,
      "fran": 4200,
      "##5022": 4201,
      "##50382": 4202,
      "ash": 4203,
      "cooking": 4204,
      "coins": 4205,
      "upto": 4206,
      "upset": 4207,
      "##ilg": 4208,
      "##dayno": 4209,
      "proo": 4210,
      "print": 4211,
      "##alla": 4212,
      "##alling": 4213,
      "along": 4214,
      "freefone": 4215,
      "whens": 4216,
      "dev": 4217,
      "devel": 4218,
      "outta": 4219,
      "anyways": 4220,
      "fromm": 4221,
      "##uman": 4222,
      "##olo": 4223,
      "spty": 4224,
      "spoken": 4225,
      "0844": 4226,
      "clock": 4227,
      "wanting": 4228,
      "texted": 4229,
      "sugar": 4230,
      "##ksub": 4231,
      "boat": 4232,
      "booty": 4233,
      "comedy": 4234,
      "moby": 4235,
      "txtin": 4236,
      "##906": 4237,
      "saved": 4238,
      "smokes": 4239,
      "seem": 4240,
      "seemed": 4241,
      "replace": 4242,
      "thangam": 4243,
      "art": 4244,
      "arms": 4245,
      "arng": 4246,
      "happend": 4247,
      "bye": 4248,
      "philos": 4249,
      "##711": 4250,
      "##she": 4251,
      "stoptxt": 4252,
      "afra": 4253,
      "##ules": 4254,
      "dare": 4255,
      "##berry": 4256,
      "hip": 4257,
      "map": 4258,
      "maga": 4259,
      "##705022": 4260,
      "##ourney": 4261,
      "uncl": 4262,
      "queen": 4263,
      "##igent": 4264,
      "meetin": 4265,
      "brit": 4266,
      "brought": 4267,
      "waitin": 4268,
      "evry": 4269,
      "##ubb": 4270,
      "moji": 4271,
      "##aged": 4272,
      "0871750": 4273,
      "##ffff": 4274,
      "admin": 4275,
      "accom": 4276,
      "accor": 4277,
      "blow": 4278,
      "##play": 4279,
      "##place": 4280,
      "##ploy": 4281,
      "contin": 4282,
      "##wel": 4283,
      "##669": 4284,
      "##222": 4285,
      "series": 4286,
      "roger": 4287,
      "##ears": 4288,
      "##earch": 4289,
      "##like": 4290,
      "messageits": 4291,
      "##2050": 4292,
      "havnt": 4293,
      "feet": 4294,
      "fever": 4295,
      "febr": 4296,
      "career": 4297,
      "careful": 4298,
      "carefully": 4299,
      "lux": 4300,
      "lucoz": 4301,
      "wwwtext": 4302,
      "##comes": 4303,
      "perfect": 4304,
      "appt": 4305,
      "appro": 4306,
      "apparently": 4307,
      "carry": 4308,
      "##40323": 4309,
      "grl": 4310,
      "##ints": 4311,
      "remo": 4312,
      "idk": 4313,
      "idiot": 4314,
      "nokia66": 4315,
      "played": 4316,
      "befor": 4317,
      "dates": 4318,
      "##while": 4319,
      "sooner": 4320,
      "box39": 4321,
      "personality": 4322,
      "090651": 4323,
      "flow": 4324,
      "math": 4325,
      "matured": 4326,
      "##cost": 4327,
      "##colle": 4328,
      "##iven": 4329,
      "##ives": 4330,
      "##ived": 4331,
      "competition": 4332,
      "action": 4333,
      "research": 4334,
      "##iza": 4335,
      "paris": 4336,
      "##878": 4337,
      "receiving": 4338,
      "received": 4339,
      "hols": 4340,
      "cru": 4341,
      "##hey": 4342,
      "prov": 4343,
      "ansr": 4344,
      "drivin": 4345,
      "##anger": 4346,
      "infernal": 4347,
      "monthly": 4348,
      "wkend": 4349,
      "netcolle": 4350,
      "decision": 4351,
      "xxxx": 4352,
      "##11pm": 4353,
      "##1151": 4354,
      "087028": 4355,
      "enjoyed": 4356,
      "addict": 4357,
      "largest": 4358,
      "125": 4359,
      "biggest": 4360,
      "housemaid": 4361,
      "##396": 4362,
      "bathing": 4363,
      "btw": 4364,
      "##movi": 4365,
      "swim": 4366,
      "godi": 4367,
      "subs": 4368,
      "skill": 4369,
      "skype": 4370,
      "complain": 4371,
      "150pmin": 4372,
      "bringing": 4373,
      "born": 4374,
      "easier": 4375,
      "ela": 4376,
      "kisses": 4377,
      "##onescouk": 4378,
      "hug": 4379,
      "tax": 4380,
      "taunt": 4381,
      "##ension": 4382,
      "fuckin": 4383,
      "answers": 4384,
      "sura": 4385,
      "passed": 4386,
      "passionate": 4387,
      "indians": 4388,
      "meanwhile": 4389,
      "logo": 4390,
      "total": 4391,
      "students": 4392,
      "tones2": 4393,
      "mums": 4394,
      "mumtaz": 4395,
      "credited": 4396,
      "080019": 4397,
      "090666": 4398,
      "##elligent": 4399,
      "##151": 4400,
      "answering": 4401,
      "##board": 4402,
      "tenants": 4403,
      "wedding": 4404,
      "refused": 4405,
      "ordered": 4406,
      "kkhow": 4407,
      "public": 4408,
      "takin": 4409,
      "handle": 4410,
      "deleted": 4411,
      "respect": 4412,
      "respons": 4413,
      "faster": 4414,
      "nyc": 4415,
      "##51fl": 4416,
      "##lines": 4417,
      "##4025": 4418,
      "ntwk": 4419,
      "raise": 4420,
      "aiya": 4421,
      "aiyar": 4422,
      "natural": 4423,
      "recd": 4424,
      "assume": 4425,
      "08712778": 4426,
      "80488": 4427,
      "tihs": 4428,
      "kidz": 4429,
      "##mobsmore": 4430,
      "shortly": 4431,
      "valuable": 4432,
      "laughing": 4433,
      "purity": 4434,
      "purpose": 4435,
      "transf": 4436,
      "transfer": 4437,
      "subscriber": 4438,
      "subscription": 4439,
      "songs": 4440,
      "##86906": 4441,
      "followed": 4442,
      "surprised": 4443,
      "bcums": 4444,
      "##25wx": 4445,
      "##hhhh": 4446,
      "intelligent": 4447,
      "books": 4448,
      "##w1jhl": 4449,
      "ibiza": 4450,
      "lecture": 4451,
      "solve": 4452,
      "teaches": 4453,
      "spending": 4454,
      "090663622": 4455,
      "##087147": 4456,
      "understanding": 4457,
      "020603": 4458,
      "roww1j6hl": 4459,
      "roww1jhl": 4460,
      "salary": 4461,
      "blackberry": 4462,
      "0780": 4463,
      "fills": 4464,
      "unique": 4465,
      "08715705022": 4466,
      "football": 4467,
      "market": 4468,
      "sarc": 4469,
      "spoil": 4470,
      "argue": 4471,
      "activities": 4472,
      "prepare": 4473,
      "profit": 4474,
      "cleaning": 4475,
      "celeb": 4476,
      "benef": 4477,
      "center": 4478,
      "gaps": 4479,
      "##cm2": 4480,
      "shoot": 4481,
      "prescri": 4482,
      "sports": 4483,
      "closer": 4484,
      "machan": 4485,
      "1500": 4486,
      "2moro": 4487,
      "87121": 4488,
      "87131": 4489,
      "88039": 4490,
      "##missed": 4491,
      "record": 4492,
      "wearing": 4493,
      "temple": 4494,
      "explain": 4495,
      "bloody": 4496,
      "bloomber": 4497,
      "bloodsend": 4498,
      "60pmin": 4499,
      "harry": 4500,
      "hanging": 4501,
      "manda": 4502,
      "package": 4503,
      "losing": 4504,
      "0871918": 4505,
      "letters": 4506,
      "milk": 4507,
      "m263uz": 4508,
      "titles": 4509,
      "##pobox177": 4510,
      "affection": 4511,
      "magical": 4512,
      "##40625": 4513,
      "10am7pm": 4514,
      "preferably": 4515,
      "08002986906": 4516,
      "response": 4517,
      "83355": 4518,
      "accidentally": 4519,
      "celebrate": 4520,
      "7250i": 4521,
      "ache": 4522,
      "bowl": 4523,
      "ec2a": 4524,
      "jamster": 4525,
      "maintain": 4526,
      "slipp": 4527,
      "verify": 4528,
      "inches": 4529,
      "belovd": 4530,
      "atlanta": 4531,
      "closedincl": 4532,
      "legal": 4533,
      "wonders": 4534,
      "window": 4535,
      "drunk": 4536,
      "ideas": 4537,
      "embarassed": 4538,
      "settings": 4539,
      "09061221066": 4540,
      "08712405020": 4541,
      "considering": 4542,
      "txtauction": 4543,
      "8552": 4544,
      "84199": 4545,
      "9am11pm": 4546,
      "derek": 4547,
      "esplanade": 4548,
      "escape": 4549,
      "essential": 4550,
      "lonely": 4551,
      "masters": 4552,
      "radio": 4553,
      "yuo": 4554,
      "##3806": 4555,
      "chicken": 4556,
      "enemy": 4557,
      "wwwringtonescouk": 4558,
      "appointment": 4559,
      "settled": 4560,
      "150pmsgrcvdhgsuite3422lands": 4561,
      "purchase": 4562,
      "gravity": 4563,
      "09099726": 4564,
      "3qxj": 4565,
      "4info": 4566,
      "87239": 4567,
      "83600": 4568,
      "87575": 4569,
      "auto": 4570,
      "bishan": 4571,
      "bahamas": 4572,
      "cw25wx": 4573,
      "creep": 4574,
      "dictionary": 4575,
      "further": 4576,
      "fifteen": 4577,
      "kusruth": 4578,
      "kettoda": 4579,
      "renew": 4580,
      "tkts": 4581,
      "ultim": 4582,
      "w111wx": 4583,
      "wylie": 4584,
      "##bodys": 4585,
      "##buddy": 4586,
      "##hp51fl": 4587,
      "##n7qp": 4588,
      "throat": 4589,
      "youclean": 4590,
      "captain": 4591,
      "itplspls": 4592,
      "govtinstituitions": 4593,
      "reasons": 4594,
      "released": 4595,
      "sptyrone": 4596,
      "philosoph": 4597,
      "afraid": 4598,
      "uncles": 4599,
      "february": 4600,
      "box39822": 4601,
      "netcollex": 4602,
      "08702840625": 4603,
      "addicted": 4604,
      "taunton": 4605,
      "08001950382": 4606,
      "0871277810": 4607,
      "##08714740323": 4608,
      "bloomberg": 4609,
      "##pobox177hp51fl": 4610,
      "closedincluding": 4611,
      "150pmsgrcvdhgsuite3422landsroww1j6hl": 4612,
      "3qxj9": 4613,
      "kusruthi": 4614,
      "09": 4615,
      "008": 4616,
      "0122": 4617,
      "13": 4618,
      "1u": 4619,
      "140": 4620,
      "121": 4621,
      "1win": 4622,
      "2y": 4623,
      "2g": 4624,
      "26": 4625,
      "220": 4626,
      "31": 4627,
      "3u": 4628,
      "3co": 4629,
      "3uz": 4630,
      "4co": 4631,
      "434": 4632,
      "4press": 4633,
      "4mths": 4634,
      "447": 4635,
      "5g": 4636,
      "5gent": 4637,
      "5min": 4638,
      "6h": 4639,
      "6pm": 4640,
      "699": 4641,
      "6month": 4642,
      "78": 4643,
      "7child": 4644,
      "86": 4645,
      "816": 4646,
      "895": 4647,
      "8ne": 4648,
      "886": 4649,
      "8130": 4650,
      "8412": 4651,
      "8wp": 4652,
      "84025": 4653,
      "9t": 4654,
      "9ja": 4655,
      "aah": 4656,
      "aug": 4657,
      "bm": 4658,
      "bst": 4659,
      "ble": 4660,
      "bri": 4661,
      "bite": 4662,
      "bra": 4663,
      "burn": 4664,
      "bread": 4665,
      "cit": 4666,
      "certain": 4667,
      "ds": 4668,
      "dan": 4669,
      "dot": 4670,
      "dif": 4671,
      "dick": 4672,
      "dial": 4673,
      "dorm": 4674,
      "dign": 4675,
      "ese": 4676,
      "eth": 4677,
      "fit": 4678,
      "fry": 4679,
      "fake": 4680,
      "fab": 4681,
      "fif": 4682,
      "ful": 4683,
      "fag": 4684,
      "fem": 4685,
      "fear": 4686,
      "fave": 4687,
      "fath": 4688,
      "field": 4689,
      "gh": 4690,
      "gn": 4691,
      "gp": 4692,
      "gam": 4693,
      "gain": 4694,
      "gary": 4695,
      "gang": 4696,
      "gaut": 4697,
      "germ": 4698,
      "hy": 4699,
      "hen": 4700,
      "hid": 4701,
      "hint": 4702,
      "iou": 4703,
      "ike": 4704,
      "js": 4705,
      "jer": 4706,
      "jap": 4707,
      "james": 4708,
      "jason": 4709,
      "journey": 4710,
      "ka": 4711,
      "kay": 4712,
      "kit": 4713,
      "kad": 4714,
      "kara": 4715,
      "k52": 4716,
      "lk": 4717,
      "lay": 4718,
      "lid": 4719,
      "lick": 4720,
      "lag": 4721,
      "lous": 4722,
      "lines": 4723,
      "lounge": 4724,
      "ment": 4725,
      "mill": 4726,
      "mix": 4727,
      "mult": 4728,
      "miles": 4729,
      "mention": 4730,
      "nb": 4731,
      "nut": 4732,
      "nas": 4733,
      "nur": 4734,
      "nap": 4735,
      "nich": 4736,
      "names": 4737,
      "oic": 4738,
      "okey": 4739,
      "pet": 4740,
      "pun": 4741,
      "pout": 4742,
      "pink": 4743,
      "pence": 4744,
      "path": 4745,
      "ry": 4746,
      "rat": 4747,
      "ron": 4748,
      "rac": 4749,
      "rob": 4750,
      "rub": 4751,
      "rail": 4752,
      "rich": 4753,
      "rang": 4754,
      "sd": 4755,
      "sf": 4756,
      "son": 4757,
      "sig": 4758,
      "sno": 4759,
      "tur": 4760,
      "tight": 4761,
      "tess": 4762,
      "tall": 4763,
      "tast": 4764,
      "tul": 4765,
      "tape": 4766,
      "twel": 4767,
      "u4": 4768,
      "ut": 4769,
      "vod": 4770,
      "vive": 4771,
      "vett": 4772,
      "vava": 4773,
      "ws": 4774,
      "wu": 4775,
      "wt": 4776,
      "wi": 4777,
      "wn": 4778,
      "wks": 4779,
      "wick": 4780,
      "wud": 4781,
      "woo": 4782,
      "wip": 4783,
      "wise": 4784,
      "wild": 4785,
      "xav": 4786,
      "xuhui": 4787,
      "yor": 4788,
      "##vy": 4789,
      "##vent": 4790,
      "##vill": 4791,
      "##vir": 4792,
      "##vable": 4793,
      "##vision": 4794,
      "##vali": 4795,
      "##eg": 4796,
      "##eat": 4797,
      "##evr": 4798,
      "##bre": 4799,
      "##bit": 4800,
      "##bee": 4801,
      "##bum": 4802,
      "##bol": 4803,
      "##3876": 4804,
      "##120": 4805,
      "##139": 4806,
      "##1327": 4807,
      "##087": 4808,
      "##423": 4809,
      "##428": 4810,
      "##4tcbiz": 4811,
      "##yar": 4812,
      "##yond": 4813,
      "##ypls": 4814,
      "##83": 4815,
      "##85": 4816,
      "##800": 4817,
      "##823": 4818,
      "##8130": 4819,
      "##700": 4820,
      "##769": 4821,
      "##2h": 4822,
      "##2t": 4823,
      "##2day": 4824,
      "##56": 4825,
      "##50000": 4826,
      "##of": 4827,
      "##oen": 4828,
      "##ole": 4829,
      "##over": 4830,
      "##ocks": 4831,
      "##sack": 4832,
      "##hm": 4833,
      "##ht": 4834,
      "##his": 4835,
      "##has": 4836,
      "##hone": 4837,
      "##hil": 4838,
      "##hol": 4839,
      "##haim": 4840,
      "##lor": 4841,
      "##ught": 4842,
      "##uine": 4843,
      "##mus": 4844,
      "##mart": 4845,
      "##tv": 4846,
      "##td": 4847,
      "##tone": 4848,
      "##tec": 4849,
      "##ias": 4850,
      "##iod": 4851,
      "##iam": 4852,
      "##ium": 4853,
      "##iwhere": 4854,
      "##ni": 4855,
      "##nr": 4856,
      "##nw": 4857,
      "##name": 4858,
      "##gi": 4859,
      "##game": 4860,
      "##gare": 4861,
      "##gift": 4862,
      "##games": 4863,
      "##giving": 4864,
      "##given": 4865,
      "##rst": 4866,
      "##rant": 4867,
      "##ration": 4868,
      "##ruct": 4869,
      "##dred": 4870,
      "##dare": 4871,
      "##cn": 4872,
      "##can": 4873,
      "##cant": 4874,
      "##core": 4875,
      "##cert": 4876,
      "##aj": 4877,
      "##aur": 4878,
      "##aff": 4879,
      "##aire": 4880,
      "##aweek": 4881,
      "##pers": 4882,
      "##pap": 4883,
      "##pool": 4884,
      "##kin": 4885,
      "##621": 4886,
      "##634": 4887,
      "##678": 4888,
      "##fil": 4889,
      "##fter": 4890,
      "##fie": 4891,
      "##ford": 4892,
      "##93": 4893,
      "##94": 4894,
      "##9d": 4895,
      "##980": 4896,
      "##ws": 4897,
      "##wu": 4898,
      "##wr": 4899,
      "##want": 4900,
      "##wys": 4901,
      "##wars": 4902,
      "##w15h": 4903,
      "##wksub": 4904,
      "##zing": 4905,
      "##jor": 4906,
      "##iny": 4907,
      "##ino": 4908,
      "##inc": 4909,
      "##insh": 4910,
      "##ination": 4911,
      "##inung": 4912,
      "ths": 4913,
      "thm": 4914,
      "##erg": 4915,
      "##erve": 4916,
      "tom": 4917,
      "tog": 4918,
      "toa": 4919,
      "toll": 4920,
      "tool": 4921,
      "tomor": 4922,
      "tome": 4923,
      "tomarrow": 4924,
      "##att": 4925,
      "##atter": 4926,
      "##enger": 4927,
      "##orc": 4928,
      "##onw": 4929,
      "##onment": 4930,
      "##onnect": 4931,
      "##anks": 4932,
      "##anish": 4933,
      "##rey": 4934,
      "##reg": 4935,
      "##oms": 4936,
      "##owww": 4937,
      "##etter": 4938,
      "##etime": 4939,
      "##etbab": 4940,
      "##itin": 4941,
      "##itive": 4942,
      "##stake": 4943,
      "##start": 4944,
      "##story": 4945,
      "##stood": 4946,
      "haiz": 4947,
      "hallow": 4948,
      "halla": 4949,
      "##ota": 4950,
      "in2": 4951,
      "inning": 4952,
      "##lea": 4953,
      "##lebe": 4954,
      "##leave": 4955,
      "##ison": 4956,
      "cap": 4957,
      "cake": 4958,
      "calc": 4959,
      "caught": 4960,
      "memor": 4961,
      "measure": 4962,
      "onwards": 4963,
      "##utive": 4964,
      "itc": 4965,
      "iscom": 4966,
      "islands": 4967,
      "##lyits": 4968,
      "go2": 4969,
      "##icy": 4970,
      "##icit": 4971,
      "##icut": 4972,
      "##icine": 4973,
      "##icient": 4974,
      "force": 4975,
      "forgiven": 4976,
      "rebo": 4977,
      "rechar": 4978,
      "bein": 4979,
      "beware": 4980,
      "behave": 4981,
      "beyond": 4982,
      "storm": 4983,
      "stars": 4984,
      "stuck": 4985,
      "stamps": 4986,
      "staff": 4987,
      "##ases": 4988,
      "##asam": 4989,
      "welp": 4990,
      "weigh": 4991,
      "##alam": 4992,
      "##alous": 4993,
      "##enter": 4994,
      "calld": 4995,
      "callin": 4996,
      "callback": 4997,
      "##ids": 4998,
      "##ima": 4999,
      "##ching": 5000,
      "##chless": 5001,
      "##illas": 5002,
      "doors": 5003,
      "docs": 5004,
      "shot": 5005,
      "shut": 5006,
      "shir": 5007,
      "shag": 5008,
      "shah": 5009,
      "##keys": 5010,
      "heal": 5011,
      "##rix3": 5012,
      "cannt": 5013,
      "##acom": 5014,
      "impr": 5015,
      "likes": 5016,
      "neg": 5017,
      "##oday": 5018,
      "##ldn": 5019,
      "or2stop": 5020,
      "no8": 5021,
      "nows": 5022,
      "tex": 5023,
      "tele": 5024,
      "telp": 5025,
      "tease": 5026,
      "##eeee": 5027,
      "##eechless": 5028,
      "##uro": 5029,
      "cher": 5030,
      "chart": 5031,
      "chain": 5032,
      "chos": 5033,
      "chap": 5034,
      "chasing": 5035,
      "atm": 5036,
      "##obile": 5037,
      "##ecutive": 5038,
      "##unat": 5039,
      "##unam": 5040,
      "##unday": 5041,
      "##ungu": 5042,
      "##undays": 5043,
      "##sey": 5044,
      "##thm": 5045,
      "##though": 5046,
      "##esssubscription": 5047,
      "fring": 5048,
      "front": 5049,
      "##pped": 5050,
      "##pperm": 5051,
      "##50p": 5052,
      "##irst": 5053,
      "##nted": 5054,
      "cock": 5055,
      "updat": 5056,
      "##ilty": 5057,
      "##ilove": 5058,
      "americ": 5059,
      "okok": 5060,
      "okthen": 5061,
      "lt3": 5062,
      "lturl": 5063,
      "prak": 5064,
      "props": 5065,
      "prosp": 5066,
      "ala": 5067,
      "alive": 5068,
      "alco": 5069,
      "album": 5070,
      "alfie": 5071,
      "alwys": 5072,
      "##cewhat": 5073,
      "knack": 5074,
      "freezing": 5075,
      "whenevr": 5076,
      "death": 5077,
      "depress": 5078,
      "outstand": 5079,
      "anywhere": 5080,
      "anythin": 5081,
      "goodnite": 5082,
      "knowing": 5083,
      "##ables": 5084,
      "##tern": 5085,
      "##ols": 5086,
      "##olt": 5087,
      "##olut": 5088,
      "##olas": 5089,
      "##olice": 5090,
      "abta": 5091,
      "day2": 5092,
      "dayu": 5093,
      "spk": 5094,
      "spir": 5095,
      "spring": 5096,
      "spanish": 5097,
      "speechless": 5098,
      "cloth": 5099,
      "claire": 5100,
      "likely": 5101,
      "guilty": 5102,
      "textoper": 5103,
      "##ified": 5104,
      "##iforn": 5105,
      "sug": 5106,
      "supr": 5107,
      "booking": 5108,
      "comb": 5109,
      "sender": 5110,
      "mini": 5111,
      "minnam": 5112,
      "pok": 5113,
      "##903": 5114,
      "##9050000": 5115,
      "sauc": 5116,
      "sachin": 5117,
      "seat": 5118,
      "seven": 5119,
      "smoking": 5120,
      "smash": 5121,
      "needed": 5122,
      "sorrow": 5123,
      "sorting": 5124,
      "argh": 5125,
      "arun": 5126,
      "arsen": 5127,
      "phne": 5128,
      "##7151": 5129,
      "##shop": 5130,
      "##shall": 5131,
      "homeown": 5132,
      "##aster": 5133,
      "stops": 5134,
      "##ula": 5135,
      "dave": 5136,
      "newest": 5137,
      "history": 5138,
      "##reats": 5139,
      "150per": 5140,
      "tons": 5141,
      "male": 5142,
      "major": 5143,
      "##ections": 5144,
      "090946": 5145,
      "0907151": 5146,
      "exe": 5147,
      "exorc": 5148,
      "executive": 5149,
      "sheets": 5150,
      "##704050": 5151,
      "##ours": 5152,
      "unfort": 5153,
      "uncon": 5154,
      "missin": 5155,
      "everybody": 5156,
      "##iah": 5157,
      "enuff": 5158,
      "legs": 5159,
      "messenger": 5160,
      "dear1": 5161,
      "dearer": 5162,
      "dearly": 5163,
      "bros": 5164,
      "waitu": 5165,
      "manees": 5166,
      "prizes": 5167,
      "evn": 5168,
      "event": 5169,
      "buzy": 5170,
      "##epend": 5171,
      "moons": 5172,
      "moved": 5173,
      "087191": 5174,
      "adore": 5175,
      "##few": 5176,
      "blur": 5177,
      "blame": 5178,
      "bloo": 5179,
      "blah": 5180,
      "block": 5181,
      "blakes": 5182,
      "winning": 5183,
      "##mmob": 5184,
      "##mmma": 5185,
      "contents": 5186,
      "msging": 5187,
      "##ache": 5188,
      "##haha": 5189,
      "##hause": 5190,
      "##661": 5191,
      "##6669": 5192,
      "yeshe": 5193,
      "##upur": 5194,
      "##assy": 5195,
      "concert": 5196,
      "roast": 5197,
      "roads": 5198,
      "rofl": 5199,
      "morph": 5200,
      "##301": 5201,
      "##305": 5202,
      "##likes": 5203,
      "##20946": 5204,
      "sometime": 5205,
      "havin": 5206,
      "sleeps": 5207,
      "fell": 5208,
      "fees": 5209,
      "lucy": 5210,
      "wwws": 5211,
      "www4tcbiz": 5212,
      "##bell": 5213,
      "##been": 5214,
      "##comp": 5215,
      "period": 5216,
      "apps": 5217,
      "appr": 5218,
      "caring": 5219,
      "carol": 5220,
      "##ip45": 5221,
      "##403": 5222,
      "##404": 5223,
      "thanksgiving": 5224,
      "nokias": 5225,
      "gran": 5226,
      "gram": 5227,
      "ground": 5228,
      "groo": 5229,
      "##inte": 5230,
      "reminder": 5231,
      "sentence": 5232,
      "senthil": 5233,
      "##150gbpm": 5234,
      "##801": 5235,
      "display": 5236,
      "dislikes": 5237,
      "##getables": 5238,
      "urgentbut": 5239,
      "urgentlyits": 5240,
      "dats": 5241,
      "hog": 5242,
      "##which": 5243,
      "finishing": 5244,
      "finishes": 5245,
      "value": 5246,
      "##103": 5247,
      "##101": 5248,
      "10k": 5249,
      "1030": 5250,
      "##blefrnd": 5251,
      "##882": 5252,
      "help0871": 5253,
      "box95": 5254,
      "box334": 5255,
      "box97": 5256,
      "lotr": 5257,
      "customers": 5258,
      "gona": 5259,
      "chatting": 5260,
      "090634": 5261,
      "090659": 5262,
      "0906345": 5263,
      "flash": 5264,
      "flaked": 5265,
      "matrix3": 5266,
      "lately": 5267,
      "##iva": 5268,
      "##percent": 5269,
      "partic": 5270,
      "partners": 5271,
      "tcrw1": 5272,
      "collecting": 5273,
      "collected": 5274,
      "scr": 5275,
      "score": 5276,
      "scary": 5277,
      "screen": 5278,
      "##izen": 5279,
      "business": 5280,
      "margare": 5281,
      "prey": 5282,
      "previously": 5283,
      "previous": 5284,
      "parking": 5285,
      "parag": 5286,
      "##ahan": 5287,
      "eaten": 5288,
      "##prints": 5289,
      "yetunde": 5290,
      "##248": 5291,
      "18only": 5292,
      "18yrs": 5293,
      "80082": 5294,
      "crab": 5295,
      "crack": 5296,
      "crash": 5297,
      "cramps": 5298,
      "cricket": 5299,
      "payoh": 5300,
      "boye": 5301,
      "birla": 5302,
      "prove": 5303,
      "prolly": 5304,
      "best1": 5305,
      "seconds": 5306,
      "##work": 5307,
      "hahahause": 5308,
      "reality": 5309,
      "realize": 5310,
      "realized": 5311,
      "slap": 5312,
      "suntec": 5313,
      "##ousemaid": 5314,
      "infowww": 5315,
      "holidayso": 5316,
      "##11000": 5317,
      "08701": 5318,
      "08709": 5319,
      "087024": 5320,
      "addie": 5321,
      "videos": 5322,
      "bigger": 5323,
      "##rator": 5324,
      "##rated": 5325,
      "diam": 5326,
      "accounts": 5327,
      "sweetest": 5328,
      "batch": 5329,
      "##183": 5330,
      "2005": 5331,
      "swo": 5332,
      "swtheart": 5333,
      "tmobile": 5334,
      "worlds": 5335,
      "subpo": 5336,
      "avent": 5337,
      "avatar": 5338,
      "sk3": 5339,
      "skip": 5340,
      "skilg": 5341,
      "attach": 5342,
      "##etext": 5343,
      "##agesmissed": 5344,
      "##nyt": 5345,
      "hesit": 5346,
      "##12hrs": 5347,
      "##1259": 5348,
      "##12661": 5349,
      "##3800": 5350,
      "invest": 5351,
      "invite": 5352,
      "invnted": 5353,
      "postcode": 5354,
      "remembered": 5355,
      "moments": 5356,
      "settle": 5357,
      "0906120946": 5358,
      "painful": 5359,
      "runs": 5360,
      "callsmess": 5361,
      "supply": 5362,
      "differ": 5363,
      "hundred": 5364,
      "shesil": 5365,
      "logopic": 5366,
      "mono": 5367,
      "snake": 5368,
      "##anyway": 5369,
      "##xxxxxxxxx": 5370,
      "todaysundays": 5371,
      "register": 5372,
      "regular": 5373,
      "headache": 5374,
      "mummy": 5375,
      "##psms": 5376,
      "##frm": 5377,
      "cheer": 5378,
      "chechi": 5379,
      "officeunder": 5380,
      "option": 5381,
      "09066358": 5382,
      "tests": 5383,
      "08718730": 5384,
      "0871873800": 5385,
      "elsewhere": 5386,
      "understood": 5387,
      "##ltd": 5388,
      "##698": 5389,
      "valid12hrs": 5390,
      "87021": 5391,
      "walked": 5392,
      "##ucts": 5393,
      "cleared": 5394,
      "kkim": 5395,
      "term": 5396,
      "terrible": 5397,
      "taken": 5398,
      "wifehow": 5399,
      "questioned": 5400,
      "cornw": 5401,
      "erm": 5402,
      "handed": 5403,
      "hardcore": 5404,
      "delay": 5405,
      "cardiff": 5406,
      "ipad": 5407,
      "medicine": 5408,
      "##ukk": 5409,
      "prompt": 5410,
      "promises": 5411,
      "keys": 5412,
      "normally": 5413,
      "raji": 5414,
      "tscs08714740323": 5415,
      "##ibi": 5416,
      "##ibility": 5417,
      "sleepingand": 5418,
      "natal": 5419,
      "natuition": 5420,
      "touched": 5421,
      "warner": 5422,
      "##1004": 5423,
      "##100percent": 5424,
      "incre": 5425,
      "incident": 5426,
      "recent": 5427,
      "##ossible": 5428,
      "08712402": 5429,
      "80182": 5430,
      "80878": 5431,
      "billed": 5432,
      "courage": 5433,
      "middle": 5434,
      "sum1": 5435,
      "instantly": 5436,
      "instruct": 5437,
      "advent": 5438,
      "advise": 5439,
      "0800093876": 5440,
      "fancies": 5441,
      "shortage": 5442,
      "downloads": 5443,
      "laughed": 5444,
      "300603": 5445,
      "distance": 5446,
      "fair": 5447,
      "films": 5448,
      "filthy": 5449,
      "jays": 5450,
      "siri": 5451,
      "parked": 5452,
      "subscribe": 5453,
      "subscribed": 5454,
      "confirmed": 5455,
      "090580918": 5456,
      "despar": 5457,
      "fightng": 5458,
      "jane": 5459,
      "standing": 5460,
      "mobilesdi": 5461,
      "50p": 5462,
      "698": 5463,
      "69888": 5464,
      "83222": 5465,
      "bbd": 5466,
      "eye": 5467,
      "soup": 5468,
      "annoy": 5469,
      "calicut": 5470,
      "californ": 5471,
      "nearly": 5472,
      "disconnect": 5473,
      "teacher": 5474,
      "sorted": 5475,
      "returned": 5476,
      "0207": 5477,
      "catching": 5478,
      "grahm": 5479,
      "given": 5480,
      "ldnw15h": 5481,
      "madam": 5482,
      "rule": 5483,
      "sales": 5484,
      "trave": 5485,
      "voicemail": 5486,
      "include": 5487,
      "including": 5488,
      "praying": 5489,
      "supervis": 5490,
      "countin": 5491,
      "stupidits": 5492,
      "07xxxxxxxxx": 5493,
      "educ": 5494,
      "falls": 5495,
      "honeybee": 5496,
      "mmmm": 5497,
      "##bye": 5498,
      "##82228": 5499,
      "tort": 5500,
      "starwars": 5501,
      "waheed": 5502,
      "univers": 5503,
      "footprints": 5504,
      "cudd": 5505,
      "cuddle": 5506,
      "generally": 5507,
      "genuine": 5508,
      "hgsuite3422landsroww1j6hl": 5509,
      "ummmmma": 5510,
      "vegetables": 5511,
      "##1winawk": 5512,
      "##alyfrm": 5513,
      "changes": 5514,
      "quickly": 5515,
      "profess": 5516,
      "cutefrnd": 5517,
      "httpwwwetlp": 5518,
      "requests": 5519,
      "82242": 5520,
      "bags": 5521,
      "##170150p": 5522,
      "##uuuu": 5523,
      "##dingly": 5524,
      "##freefone": 5525,
      "china": 5526,
      "clos1": 5527,
      "community": 5528,
      "macho": 5529,
      "usualiam": 5530,
      "blessings": 5531,
      "regarding": 5532,
      "2morow": 5533,
      "88066": 5534,
      "burger": 5535,
      "jealous": 5536,
      "popped": 5537,
      "ranjith": 5538,
      "women": 5539,
      "##tmsg18": 5540,
      "steam": 5541,
      "temp": 5542,
      "practic": 5543,
      "explicit": 5544,
      "messageno": 5545,
      "moralone": 5546,
      "randomly": 5547,
      "21st": 5548,
      "eggs": 5549,
      "icic": 5550,
      "july": 5551,
      "juicy": 5552,
      "psy": 5553,
      "tsunam": 5554,
      "walls": 5555,
      "wallpap": 5556,
      "##ency": 5557,
      "issue": 5558,
      "loses": 5559,
      "impossible": 5560,
      "lifpart": 5561,
      "lifetime": 5562,
      "successful": 5563,
      "successfully": 5564,
      "08719899": 5565,
      "drinking": 5566,
      "dresser": 5567,
      "picture": 5568,
      "roommate": 5569,
      "087187269": 5570,
      "responding": 5571,
      "##3585": 5572,
      "gentleman": 5573,
      "audition": 5574,
      "bottle": 5575,
      "bottom": 5576,
      "breathe": 5577,
      "garage": 5578,
      "greetings": 5579,
      "honest": 5580,
      "jstfrnd": 5581,
      "title": 5582,
      "tirunel": 5583,
      "tirupur": 5584,
      "walmart": 5585,
      "foreign": 5586,
      "forevr": 5587,
      "format": 5588,
      "chillin": 5589,
      "broad": 5590,
      "087147123": 5591,
      "remains": 5592,
      "090617014": 5593,
      "deliveredtomorrow": 5594,
      "responcewhat": 5595,
      "membership": 5596,
      "##08718727870": 5597,
      "favourite": 5598,
      "irritating": 5599,
      "bx420ip45": 5600,
      "violence": 5601,
      "1his": 5602,
      "2police": 5603,
      "89555": 5604,
      "aathiwhere": 5605,
      "aathilove": 5606,
      "banks": 5607,
      "m8s": 5608,
      "north": 5609,
      "potential": 5610,
      "talent": 5611,
      "various": 5612,
      "##offer": 5613,
      "stomach": 5614,
      "stomps": 5615,
      "strike": 5616,
      "software": 5617,
      "technical": 5618,
      "prabhaim": 5619,
      "sorydare": 5620,
      "brothas": 5621,
      "management": 5622,
      "08452810073": 5623,
      "lacsthere": 5624,
      "lacsthats": 5625,
      "nimyapls": 5626,
      "occup": 5627,
      "wwwsmsacunat": 5628,
      "11414": 5629,
      "2stoptxt": 5630,
      "failed": 5631,
      "floor": 5632,
      "jordan": 5633,
      "lvblefrnd": 5634,
      "loud": 5635,
      "ptbo": 5636,
      "predict": 5637,
      "symbol": 5638,
      "tablets": 5639,
      "wisdom": 5640,
      "##lkpobox177hp51fl": 5641,
      "recogn": 5642,
      "doggy": 5643,
      "shorter": 5644,
      "shipping": 5645,
      "upgrade": 5646,
      "##ardener": 5647,
      "pocketbab": 5648,
      "affairs": 5649,
      "leona": 5650,
      "building": 5651,
      "##pmsg150p": 5652,
      "087178980": 5653,
      "constantly": 5654,
      "concentrate": 5655,
      "perform": 5656,
      "satisfied": 5657,
      "scotland": 5658,
      "150pmtmsgrcvd18": 5659,
      "09061790121": 5660,
      "calls1minmobsmore": 5661,
      "apologise": 5662,
      "possession": 5663,
      "ibhltd": 5664,
      "##ighbour": 5665,
      "08718726270150gbpm": 5666,
      "gmgngegn": 5667,
      "pieces": 5668,
      "exhausted": 5669,
      "1956669": 5670,
      "3wife": 5671,
      "45239": 5672,
      "75000": 5673,
      "dubsack": 5674,
      "gimme": 5675,
      "husband": 5676,
      "pending": 5677,
      "romantic": 5678,
      "source": 5679,
      "yummy": 5680,
      "##sk38": 5681,
      "##annel": 5682,
      "##realcom": 5683,
      "anti": 5684,
      "gossip": 5685,
      "shouted": 5686,
      "shijas": 5687,
      "liverpool": 5688,
      "challenge": 5689,
      "proof": 5690,
      "develop": 5691,
      "stoptxtstop": 5692,
      "08717507": 5693,
      "accordingly": 5694,
      "luxury": 5695,
      "cruise": 5696,
      "provided": 5697,
      "125gift": 5698,
      "swimming": 5699,
      "skillgame": 5700,
      "09066612661": 5701,
      "transfered": 5702,
      "09066362231": 5703,
      "slippers": 5704,
      "philosophy": 5705,
      "08702840625comuk": 5706,
      "01223585": 5707,
      "220cm2": 5708,
      "3cover": 5709,
      "4cook": 5710,
      "5gardener": 5711,
      "5gently": 5712,
      "6housemaid": 5713,
      "6months": 5714,
      "7children": 5715,
      "89545": 5716,
      "8neighbour": 5717,
      "88600": 5718,
      "81303": 5719,
      "84128": 5720,
      "august": 5721,
      "bmw": 5722,
      "bstfrnd": 5723,
      "citizen": 5724,
      "certainly": 5725,
      "dsnt": 5726,
      "dificult": 5727,
      "dignity": 5728,
      "frying": 5729,
      "female": 5730,
      "fathima": 5731,
      "gautham": 5732,
      "germany": 5733,
      "iouri": 5734,
      "ikea": 5735,
      "kadeem": 5736,
      "karaoke": 5737,
      "lido": 5738,
      "lousy": 5739,
      "nurungu": 5740,
      "nichols": 5741,
      "petrol": 5742,
      "pouts": 5743,
      "railway": 5744,
      "tessypls": 5745,
      "twelve": 5746,
      "utter": 5747,
      "vodka": 5748,
      "vettam": 5749,
      "wuld": 5750,
      "xavier": 5751,
      "##ville": 5752,
      "##vironment": 5753,
      "##aurant": 5754,
      "##621170150p": 5755,
      "##inunginte": 5756,
      "halloween": 5757,
      "innings": 5758,
      "iscoming": 5759,
      "storming": 5760,
      "shirts": 5761,
      "or2stoptxt": 5762,
      "telphone": 5763,
      "chosen": 5764,
      "##ppermesssubscription": 5765,
      "american": 5766,
      "okthenwhats": 5767,
      "lturlgt": 5768,
      "prospects": 5769,
      "alcohol": 5770,
      "knackered": 5771,
      "outstanding": 5772,
      "textoperator": 5773,
      "suprman": 5774,
      "minnaminunginte": 5775,
      "saucy": 5776,
      "arsenal": 5777,
      "homeowners": 5778,
      "##704050406": 5779,
      "maneesha": 5780,
      "08719180": 5781,
      "morphine": 5782,
      "box95qu": 5783,
      "box97n7qp": 5784,
      "09065989": 5785,
      "09063458130": 5786,
      "margaret": 5787,
      "infowww100percent": 5788,
      "subpoly": 5789,
      "skilgme": 5790,
      "09061209465": 5791,
      "callsmessagesmissed": 5792,
      "todaysundaysunday": 5793,
      "officeunderstand": 5794,
      "cornwall": 5795,
      "rajipls": 5796,
      "instructions": 5797,
      "08000938767": 5798,
      "mobilesdirect": 5799,
      "california": 5800,
      "grahmbell": 5801,
      "supervisor": 5802,
      "starwars3": 5803,
      "university": 5804,
      "ummmmmaah": 5805,
      "##1winawkage16": 5806,
      "wallpaper": 5807,
      "lifpartnr": 5808,
      "bx420ip45we": 5809,
      "sorydarealyfrm": 5810,
      "pocketbabecouk": 5811,
      "08717898035": 5812,
      "08718726270150gbpmtmsg18": 5813,
      "infowww100percentrealcom": 5814,
      "05": 5815,
      "021": 5816,
      "1s": 5817,
      "1m": 5818,
      "1un": 5819,
      "120": 5820,
      "177": 5821,
      "2b": 5822,
      "22": 5823,
      "2c": 5824,
      "29": 5825,
      "2end": 5826,
      "2ge": 5827,
      "230": 5828,
      "2unt": 5829,
      "2go": 5830,
      "2rc": 5831,
      "2marrow": 5832,
      "3un": 5833,
      "3lp": 5834,
      "3ss": 5835,
      "311": 5836,
      "326": 5837,
      "3hrs": 5838,
      "3100": 5839,
      "373": 5840,
      "3350": 5841,
      "3aj": 5842,
      "4e": 5843,
      "4t": 5844,
      "4d": 5845,
      "4a": 5846,
      "4w": 5847,
      "430": 5848,
      "420": 5849,
      "4got": 5850,
      "416": 5851,
      "4txt": 5852,
      "4some": 5853,
      "4fil": 5854,
      "4403": 5855,
      "4882": 5856,
      "54": 5857,
      "5k": 5858,
      "5pm": 5859,
      "524": 5860,
      "515": 5861,
      "5free": 5862,
      "600": 5863,
      "645": 5864,
      "612": 5865,
      "616": 5866,
      "6hl": 5867,
      "6days": 5868,
      "6wu": 5869,
      "7ish": 5870,
      "7876": 5871,
      "8am": 5872,
      "8pm": 5873,
      "810": 5874,
      "861": 5875,
      "8822": 5876,
      "82468": 5877,
      "81151": 5878,
      "9pm": 5879,
      "930": 5880,
      "92h": 5881,
      "aa": 5882,
      "ak": 5883,
      "ax": 5884,
      "aom": 5885,
      "aust": 5886,
      "apt": 5887,
      "airt": 5888,
      "asth": 5889,
      "aka": 5890,
      "apro": 5891,
      "bk": 5892,
      "bre": 5893,
      "bone": 5894,
      "bam": 5895,
      "bth": 5896,
      "bree": 5897,
      "band": 5898,
      "bul": 5899,
      "bck": 5900,
      "bto": 5901,
      "brist": 5902,
      "bsn": 5903,
      "baaaa": 5904,
      "cy": 5905,
      "cm": 5906,
      "cer": 5907,
      "cst": 5908,
      "cld": 5909,
      "csh": 5910,
      "cough": 5911,
      "cous": 5912,
      "cme": 5913,
      "c52": 5914,
      "dh": 5915,
      "dt": 5916,
      "der": 5917,
      "ding": 5918,
      "dom": 5919,
      "das": 5920,
      "dest": 5921,
      "dab": 5922,
      "dime": 5923,
      "dud": 5924,
      "dough": 5925,
      "dance": 5926,
      "dirt": 5927,
      "durb": 5928,
      "dizz": 5929,
      "dhin": 5930,
      "dumb": 5931,
      "danger": 5932,
      "eb": 5933,
      "ell": 5934,
      "ele": 5935,
      "eta": 5936,
      "eps": 5937,
      "eire": 5938,
      "fg": 5939,
      "fan": 5940,
      "fow": 5941,
      "fal": 5942,
      "fond": 5943,
      "furn": 5944,
      "fails": 5945,
      "fret": 5946,
      "fffff": 5947,
      "gv": 5948,
      "gb": 5949,
      "gy": 5950,
      "ga": 5951,
      "gf": 5952,
      "gin": 5953,
      "gan": 5954,
      "gre": 5955,
      "gast": 5956,
      "gving": 5957,
      "gig": 5958,
      "gail": 5959,
      "gist": 5960,
      "gib": 5961,
      "garden": 5962,
      "g696": 5963,
      "gender": 5964,
      "hp": 5965,
      "hpp": 5966,
      "hum": 5967,
      "hide": 5968,
      "hub": 5969,
      "hoo": 5970,
      "hlp": 5971,
      "hence": 5972,
      "ie": 5973,
      "ik": 5974,
      "iw": 5975,
      "ias": 5976,
      "jd": 5977,
      "jul": 5978,
      "jia": 5979,
      "jsc": 5980,
      "jerry": 5981,
      "jump": 5982,
      "jolt": 5983,
      "ko": 5984,
      "kl": 5985,
      "ku": 5986,
      "kg": 5987,
      "kr": 5988,
      "kz": 5989,
      "kor": 5990,
      "kent": 5991,
      "kod": 5992,
      "kud": 5993,
      "koth": 5994,
      "kav": 5995,
      "kthen": 5996,
      "kapp": 5997,
      "kicks": 5998,
      "konw": 5999,
      "lc": 6000,
      "ling": 6001,
      "lst": 6002,
      "lam": 6003,
      "lap": 6004,
      "lower": 6005,
      "lush": 6006,
      "lays": 6007,
      "lane": 6008,
      "leng": 6009,
      "licks": 6010,
      "mb": 6011,
      "ms": 6012,
      "mi": 6013,
      "m6": 6014,
      "mw": 6015,
      "mj": 6016,
      "mut": 6017,
      "mere": 6018,
      "mun": 6019,
      "mok": 6020,
      "mits": 6021,
      "m95": 6022,
      "mount": 6023,
      "msn": 6024,
      "mouth": 6025,
      "nu": 6026,
      "nd": 6027,
      "ned": 6028,
      "nus": 6029,
      "nick": 6030,
      "nast": 6031,
      "nav": 6032,
      "noun": 6033,
      "nurs": 6034,
      "named": 6035,
      "oy": 6036,
      "os": 6037,
      "ou": 6038,
      "oi": 6039,
      "oil": 6040,
      "ooo": 6041,
      "ots": 6042,
      "ola": 6043,
      "ooooo": 6044,
      "odi": 6045,
      "pim": 6046,
      "pouch": 6047,
      "p39": 6048,
      "puz": 6049,
      "peak": 6050,
      "packs": 6051,
      "pours": 6052,
      "rt": 6053,
      "ri": 6054,
      "rg": 6055,
      "ray": 6056,
      "rst": 6057,
      "ris": 6058,
      "rid": 6059,
      "rod": 6060,
      "rice": 6061,
      "ros": 6062,
      "roy": 6063,
      "range": 6064,
      "rents": 6065,
      "rhy": 6066,
      "ss": 6067,
      "sic": 6068,
      "sry": 6069,
      "sake": 6070,
      "sack": 6071,
      "sna": 6072,
      "sway": 6073,
      "sary": 6074,
      "slo": 6075,
      "sco": 6076,
      "srs": 6077,
      "sian": 6078,
      "sib": 6079,
      "tac": 6080,
      "tact": 6081,
      "tig": 6082,
      "tag": 6083,
      "tap": 6084,
      "tip": 6085,
      "tau": 6086,
      "table": 6087,
      "tank": 6088,
      "typ": 6089,
      "tlk": 6090,
      "tension": 6091,
      "tahan": 6092,
      "uh": 6093,
      "uu": 6094,
      "ug": 6095,
      "ush": 6096,
      "ubi": 6097,
      "vu": 6098,
      "vat": 6099,
      "ven": 6100,
      "vid": 6101,
      "vth": 6102,
      "vday": 6103,
      "vag": 6104,
      "vel": 6105,
      "vew": 6106,
      "vaa": 6107,
      "vict": 6108,
      "vale": 6109,
      "viva": 6110,
      "wes": 6111,
      "wld": 6112,
      "wth": 6113,
      "wide": 6114,
      "wood": 6115,
      "watever": 6116,
      "woken": 6117,
      "wml": 6118,
      "xam": 6119,
      "x49": 6120,
      "yal": 6121,
      "yck": 6122,
      "ze": 6123,
      "##vg": 6124,
      "##vary": 6125,
      "##vouch": 6126,
      "##ey": 6127,
      "##eh": 6128,
      "##eone": 6129,
      "##eath": 6130,
      "##even": 6131,
      "##bl": 6132,
      "##b6": 6133,
      "##bus": 6134,
      "##bage": 6135,
      "##bra": 6136,
      "##bha": 6137,
      "##blo": 6138,
      "##break": 6139,
      "##buk": 6140,
      "##bby": 6141,
      "##bcm": 6142,
      "##318": 6143,
      "##338": 6144,
      "##326": 6145,
      "##351": 6146,
      "##375": 6147,
      "##1bp": 6148,
      "##035": 6149,
      "##0778": 6150,
      "##01327": 6151,
      "##09050000": 6152,
      "##4t": 6153,
      "##4q": 6154,
      "##400": 6155,
      "##445": 6156,
      "##426": 6157,
      "##yf": 6158,
      "##ying": 6159,
      "##yet": 6160,
      "##years": 6161,
      "##8r": 6162,
      "##8th": 6163,
      "##871": 6164,
      "##810": 6165,
      "##860": 6166,
      "##835": 6167,
      "##819": 6168,
      "##82050": 6169,
      "##740": 6170,
      "##738": 6171,
      "##744": 6172,
      "##795": 6173,
      "##7rw": 6174,
      "##762": 6175,
      "##7xy": 6176,
      "##280": 6177,
      "##2the": 6178,
      "##2shop": 6179,
      "##54": 6180,
      "##539": 6181,
      "##584": 6182,
      "##533": 6183,
      "##5wc1n3xx": 6184,
      "##oz": 6185,
      "##oes": 6186,
      "##oices": 6187,
      "##oentry": 6188,
      "##su": 6189,
      "##som": 6190,
      "##slp": 6191,
      "##sounds": 6192,
      "##s16": 6193,
      "##swt": 6194,
      "##ho": 6195,
      "##hr": 6196,
      "##hth": 6197,
      "##hya": 6198,
      "##low": 6199,
      "##light": 6200,
      "##long": 6201,
      "##lub": 6202,
      "##lane": 6203,
      "##lots": 6204,
      "##lux": 6205,
      "##lcomes": 6206,
      "##l035": 6207,
      "##uv": 6208,
      "##uh": 6209,
      "##uot": 6210,
      "##upt": 6211,
      "##uage": 6212,
      "##upl": 6213,
      "##uah": 6214,
      "##ugg": 6215,
      "##uvi": 6216,
      "##mi": 6217,
      "##mod": 6218,
      "##mate": 6219,
      "##mum": 6220,
      "##mers": 6221,
      "##mpt": 6222,
      "##mix": 6223,
      "##miles": 6224,
      "##mates": 6225,
      "##muah": 6226,
      "##ton": 6227,
      "##tow": 6228,
      "##ted": 6229,
      "##tea": 6230,
      "##tys": 6231,
      "##t10": 6232,
      "##trs": 6233,
      "##turn": 6234,
      "##iw": 6235,
      "##iing": 6236,
      "##ior": 6237,
      "##iet": 6238,
      "##iont": 6239,
      "##iree": 6240,
      "##ige": 6241,
      "##iary": 6242,
      "##iqu": 6243,
      "##iated": 6244,
      "##ivers": 6245,
      "##nu": 6246,
      "##nn": 6247,
      "##non": 6248,
      "##nic": 6249,
      "##nec": 6250,
      "##nth": 6251,
      "##nown": 6252,
      "##nys": 6253,
      "##need": 6254,
      "##nss": 6255,
      "##norm": 6256,
      "##new": 6257,
      "##n14": 6258,
      "##n9d": 6259,
      "##gor": 6260,
      "##gan": 6261,
      "##gun": 6262,
      "##g150p": 6263,
      "##greet": 6264,
      "##rm": 6265,
      "##rt": 6266,
      "##ray": 6267,
      "##ront": 6268,
      "##ram": 6269,
      "##rict": 6270,
      "##dc": 6271,
      "##din": 6272,
      "##did": 6273,
      "##dam": 6274,
      "##dge": 6275,
      "##dig": 6276,
      "##dance": 6277,
      "##draw": 6278,
      "##dden": 6279,
      "##dbuk": 6280,
      "##cd": 6281,
      "##ca": 6282,
      "##cing": 6283,
      "##cay": 6284,
      "##cot": 6285,
      "##cut": 6286,
      "##come": 6287,
      "##card": 6288,
      "##cud": 6289,
      "##cpr": 6290,
      "##congrat": 6291,
      "##ckey": 6292,
      "##cino": 6293,
      "##cillas": 6294,
      "##aw": 6295,
      "##air": 6296,
      "##aus": 6297,
      "##aking": 6298,
      "##aks": 6299,
      "##aud": 6300,
      "##a7rw": 6301,
      "##pd": 6302,
      "##pa": 6303,
      "##pin": 6304,
      "##pes": 6305,
      "##pal": 6306,
      "##pri": 6307,
      "##pun": 6308,
      "##pite": 6309,
      "##kk": 6310,
      "##ket": 6311,
      "##kers": 6312,
      "##known": 6313,
      "##600": 6314,
      "##6150": 6315,
      "##624": 6316,
      "##674": 6317,
      "##6tf": 6318,
      "##6xxxxxxx": 6319,
      "##6gbpm": 6320,
      "##xs": 6321,
      "##xn": 6322,
      "##xah": 6323,
      "##xpress": 6324,
      "##for": 6325,
      "##fly": 6326,
      "##fun": 6327,
      "##fice": 6328,
      "##found": 6329,
      "##feel": 6330,
      "##father": 6331,
      "##fwd": 6332,
      "##first": 6333,
      "##9am": 6334,
      "##9pm": 6335,
      "##wot": 6336,
      "##wish": 6337,
      "##wcom": 6338,
      "##wary": 6339,
      "##wait": 6340,
      "##wave": 6341,
      "##wood": 6342,
      "##wali": 6343,
      "##wrc": 6344,
      "##wives": 6345,
      "##zles": 6346,
      "##ziest": 6347,
      "##zhth": 6348,
      "##ju": 6349,
      "##jen": 6350,
      "##jan": 6351,
      "##jst": 6352,
      "##jas": 6353,
      "##jits": 6354,
      "##jibi": 6355,
      "##ina": 6356,
      "##incouk": 6357,
      "##oul": 6358,
      "##oud": 6359,
      "thy": 6360,
      "thx": 6361,
      "ther": 6362,
      "thre": 6363,
      "thot": 6364,
      "thgt": 6365,
      "thous": 6366,
      "thread": 6367,
      "##eries": 6368,
      "##erable": 6369,
      "##erav": 6370,
      "##ermin": 6371,
      "tok": 6372,
      "toot": 6373,
      "toop": 6374,
      "tosh": 6375,
      "toler": 6376,
      "young": 6377,
      "##atv": 6378,
      "##ato": 6379,
      "##atic": 6380,
      "##atus": 6381,
      "##atum": 6382,
      "##atms": 6383,
      "##atme": 6384,
      "##atics": 6385,
      "##atient": 6386,
      "##atives": 6387,
      "##enice": 6388,
      "##environment": 6389,
      "##ora": 6390,
      "##ored": 6391,
      "##orce": 6392,
      "##orsg": 6393,
      "##orating": 6394,
      "##oni": 6395,
      "##oning": 6396,
      "##onet": 6397,
      "##onaut": 6398,
      "##onven": 6399,
      "##anese": 6400,
      "##anuman": 6401,
      "##eso": 6402,
      "##esend": 6403,
      "##essex": 6404,
      "##reme": 6405,
      "##reply": 6406,
      "##arm": 6407,
      "##aring": 6408,
      "##aras": 6409,
      "##arter": 6410,
      "##argg": 6411,
      "##arfull": 6412,
      "##edom": 6413,
      "##edint": 6414,
      "anj": 6415,
      "anot": 6416,
      "anim": 6417,
      "anth": 6418,
      "anna": 6419,
      "##eter": 6420,
      "##etri": 6421,
      "##ething": 6422,
      "##ethe": 6423,
      "##etcs": 6424,
      "##etcpr": 6425,
      "##ayin": 6426,
      "##ayut": 6427,
      "##ayment": 6428,
      "##itis": 6429,
      "##itic": 6430,
      "##iture": 6431,
      "##itude": 6432,
      "##std": 6433,
      "##still": 6434,
      "##sters": 6435,
      "##stery": 6436,
      "##stext": 6437,
      "##stairs": 6438,
      "##stini": 6439,
      "habit": 6440,
      "##otion": 6441,
      "##otect": 6442,
      "ing": 6443,
      "inr": 6444,
      "insh": 6445,
      "inno": 6446,
      "##isation": 6447,
      "##iscount": 6448,
      "##isions": 6449,
      "##isinc": 6450,
      "##iscillas": 6451,
      "cas": 6452,
      "cave": 6453,
      "capp": 6454,
      "caus": 6455,
      "cared": 6456,
      "whn": 6457,
      "meat": 6458,
      "meow": 6459,
      "melt": 6460,
      "mega": 6461,
      "##utra": 6462,
      "itu": 6463,
      "itz": 6464,
      "item": 6465,
      "itlet": 6466,
      "itleave": 6467,
      "itwhich": 6468,
      "andre": 6469,
      "andros": 6470,
      "island": 6471,
      "##icated": 6472,
      "##icsson": 6473,
      "##iciary": 6474,
      "forum": 6475,
      "forms": 6476,
      "forums": 6477,
      "rever": 6478,
      "reck": 6479,
      "reass": 6480,
      "recess": 6481,
      "reaction": 6482,
      "revision": 6483,
      "bear": 6484,
      "begging": 6485,
      "bears": 6486,
      "belive": 6487,
      "becomes": 6488,
      "belong": 6489,
      "stere": 6490,
      "stone": 6491,
      "stones": 6492,
      "stret": 6493,
      "stamp": 6494,
      "stores": 6495,
      "status": 6496,
      "##asm": 6497,
      "##asp": 6498,
      "##asel": 6499,
      "##asota": 6500,
      "ofice": 6501,
      "of2000": 6502,
      "welcomes": 6503,
      "weasel": 6504,
      "##ala": 6505,
      "##alan": 6506,
      "##ales": 6507,
      "##aland": 6508,
      "##also": 6509,
      "mystery": 6510,
      "##0060": 6511,
      "##ent150p": 6512,
      "callcoz": 6513,
      "callfreefone": 6514,
      "call09050000": 6515,
      "##idal": 6516,
      "##idual": 6517,
      "##imum": 6518,
      "##cho": 6519,
      "##cha": 6520,
      "##chess": 6521,
      "##chedule": 6522,
      "##illa": 6523,
      "##illed": 6524,
      "dokey": 6525,
      "shy": 6526,
      "shu": 6527,
      "shan": 6528,
      "shad": 6529,
      "shud": 6530,
      "ship": 6531,
      "shamp": 6532,
      "shared": 6533,
      "shining": 6534,
      "shjas": 6535,
      "##kempt": 6536,
      "##kexpress": 6537,
      "thatll": 6538,
      "##opose": 6539,
      "##oplane": 6540,
      "hex": 6541,
      "held": 6542,
      "heater": 6543,
      "##riv": 6544,
      "##rious": 6545,
      "##ribut": 6546,
      "##rific": 6547,
      "##rifice": 6548,
      "loos": 6549,
      "lock": 6550,
      "loans": 6551,
      "loose": 6552,
      "loxah": 6553,
      "##xtcouk": 6554,
      "canal": 6555,
      "canary": 6556,
      "canada": 6557,
      "soo": 6558,
      "sooooo": 6559,
      "soiree": 6560,
      "##aced": 6561,
      "##acir": 6562,
      "##acking": 6563,
      "##acula": 6564,
      "impro": 6565,
      "##adi": 6566,
      "##aday": 6567,
      "##aders": 6568,
      "##adem": 6569,
      "##aduth": 6570,
      "##adecouk": 6571,
      "lib": 6572,
      "lil": 6573,
      "lia": 6574,
      "lip": 6575,
      "lies": 6576,
      "lily": 6577,
      "lions": 6578,
      "lived": 6579,
      "neft": 6580,
      "neither": 6581,
      "neighb": 6582,
      "##odisinc": 6583,
      "orang": 6584,
      "organ": 6585,
      "noi": 6586,
      "nooooo": 6587,
      "no440": 6588,
      "nowi": 6589,
      "now4t": 6590,
      "nothin": 6591,
      "notxtcouk": 6592,
      "tee": 6593,
      "tears": 6594,
      "##eell": 6595,
      "##urgent": 6596,
      "##urity": 6597,
      "chest": 6598,
      "chip": 6599,
      "chanc": 6600,
      "champ": 6601,
      "chuck": 6602,
      "chase": 6603,
      "choc": 6604,
      "channel": 6605,
      "getstop": 6606,
      "##enders": 6607,
      "##verb": 6608,
      "##veral": 6609,
      "##ecom": 6610,
      "##eclub": 6611,
      "##unna": 6612,
      "##unsub": 6613,
      "##unga": 6614,
      "##unately": 6615,
      "##sems": 6616,
      "##ightly": 6617,
      "##thr": 6618,
      "##essarily": 6619,
      "##antxt": 6620,
      "frank": 6621,
      "frog": 6622,
      "fresh": 6623,
      "fraud": 6624,
      "##ppw": 6625,
      "##pptxt": 6626,
      "##505": 6627,
      "##5069": 6628,
      "##irting": 6629,
      "plm": 6630,
      "plum": 6631,
      "plaz": 6632,
      "asus": 6633,
      "coc": 6634,
      "coin": 6635,
      "coat": 6636,
      "coast": 6637,
      "covers": 6638,
      "cochin": 6639,
      "up4": 6640,
      "upd8": 6641,
      "upstairs": 6642,
      "##ils": 6643,
      "##ila": 6644,
      "##ilon": 6645,
      "##ilight": 6646,
      "##ilities": 6647,
      "amy": 6648,
      "amused": 6649,
      "oktake": 6650,
      "lttrs": 6651,
      "pras": 6652,
      "prod": 6653,
      "prices": 6654,
      "protect": 6655,
      "priscillas": 6656,
      "propose": 6657,
      "algar": 6658,
      "although": 6659,
      "howard": 6660,
      "##gement": 6661,
      "##estar": 6662,
      "worst": 6663,
      "knock": 6664,
      "knees": 6665,
      "free2day": 6666,
      "deg": 6667,
      "deus": 6668,
      "defe": 6669,
      "deera": 6670,
      "dehy": 6671,
      "outs": 6672,
      "##eaking": 6673,
      "##eabs": 6674,
      "##usion": 6675,
      "goodo": 6676,
      "goodnoon": 6677,
      "goodfriend": 6678,
      "goodenvironment": 6679,
      "##abe": 6680,
      "##about": 6681,
      "gotten": 6682,
      "##olate": 6683,
      "##olved": 6684,
      "abs": 6685,
      "abj": 6686,
      "ability": 6687,
      "aburo": 6688,
      "dayshe": 6689,
      "##ileo": 6690,
      "spin": 6691,
      "spot": 6692,
      "spile": 6693,
      "spare": 6694,
      "splle": 6695,
      "spider": 6696,
      "spark": 6697,
      "sptv": 6698,
      "speaking": 6699,
      "##andy": 6700,
      "##andcs": 6701,
      "0825": 6702,
      "08700": 6703,
      "clar": 6704,
      "illsp": 6705,
      "illness": 6706,
      "##kingcouk": 6707,
      "guid": 6708,
      "textpod": 6709,
      "textbuddy": 6710,
      "sue": 6711,
      "sux": 6712,
      "suck": 6713,
      "suits": 6714,
      "suzy": 6715,
      "sudden": 6716,
      "##kslp": 6717,
      "loveme": 6718,
      "lovejen": 6719,
      "someon": 6720,
      "commer": 6721,
      "comfort": 6722,
      "sends": 6723,
      "minor": 6724,
      "minimum": 6725,
      "mobs": 6726,
      "mobno": 6727,
      "##ains": 6728,
      "txtno": 6729,
      "pole": 6730,
      "poop": 6731,
      "pool": 6732,
      "poem": 6733,
      "##ishi": 6734,
      "##901": 6735,
      "##902": 6736,
      "wating": 6737,
      "seh": 6738,
      "seeds": 6739,
      "several": 6740,
      "smith": 6741,
      "smok": 6742,
      "smell": 6743,
      "smeone": 6744,
      "##ctxt": 6745,
      "repeat": 6746,
      "repair": 6747,
      "finance": 6748,
      "fineabs": 6749,
      "arab": 6750,
      "arts": 6751,
      "weekstop": 6752,
      "happily": 6753,
      "php": 6754,
      "phoned": 6755,
      "phoen": 6756,
      "todayfrom": 6757,
      "##716": 6758,
      "##7114": 6759,
      "##7165": 6760,
      "##shole": 6761,
      "##ptxt": 6762,
      "##ptms": 6763,
      "##sget": 6764,
      "afric": 6765,
      "##ulate": 6766,
      "daal": 6767,
      "dahow": 6768,
      "dawhats": 6769,
      "telly": 6770,
      "sorryin": 6771,
      "waves": 6772,
      "150msg": 6773,
      "150ppermesssubscription": 6774,
      "maang": 6775,
      "makin": 6776,
      "offc": 6777,
      "##ection": 6778,
      "exmp": 6779,
      "exeter": 6780,
      "aww": 6781,
      "##oso": 6782,
      "##osk": 6783,
      "##osive": 6784,
      "shelf": 6785,
      "sheff": 6786,
      "##ckt": 6787,
      "##iez": 6788,
      "##ieve": 6789,
      "##703": 6790,
      "##70600": 6791,
      "##ouring": 6792,
      "welltake": 6793,
      "heri": 6794,
      "herself": 6795,
      "herlove": 6796,
      "unha": 6797,
      "unem": 6798,
      "unbe": 6799,
      "unint": 6800,
      "unnec": 6801,
      "unknown": 6802,
      "everyday": 6803,
      "everywhere": 6804,
      "everybodys": 6805,
      "usb": 6806,
      "usc": 6807,
      "##actice": 6808,
      "ques": 6809,
      "quiet": 6810,
      "##moro": 6811,
      "##igate": 6812,
      "meets": 6813,
      "meetgreet": 6814,
      "messy": 6815,
      "whose": 6816,
      "deari": 6817,
      "dearslp": 6818,
      "bray": 6819,
      "broken": 6820,
      "bruce": 6821,
      "bruv": 6822,
      "tran": 6823,
      "truff": 6824,
      "trade": 6825,
      "truck": 6826,
      "waited": 6827,
      "babys": 6828,
      "babies": 6829,
      "managed": 6830,
      "priz": 6831,
      "prior": 6832,
      "##sole": 6833,
      "##lf56": 6834,
      "evr": 6835,
      "evrey": 6836,
      "##redible": 6837,
      "bull": 6838,
      "greatest": 6839,
      "greatbha": 6840,
      "##ideo": 6841,
      "##idewcom": 6842,
      "muchi": 6843,
      "moving": 6844,
      "moves": 6845,
      "mojibi": 6846,
      "##orte": 6847,
      "087171": 6848,
      "claims": 6849,
      "##ffic": 6850,
      "ads": 6851,
      "adam": 6852,
      "adoring": 6853,
      "accent": 6854,
      "acoentry": 6855,
      "acl035": 6856,
      "academ": 6857,
      "blind": 6858,
      "bluff": 6859,
      "bloke": 6860,
      "blond": 6861,
      "blokes": 6862,
      "##pler": 6863,
      "##pline": 6864,
      "control": 6865,
      "msg150p": 6866,
      "wan2": 6867,
      "##oyou": 6868,
      "##wear": 6869,
      "##weet": 6870,
      "tooo": 6871,
      "agree": 6872,
      "agalla": 6873,
      "##haved": 6874,
      "##haps": 6875,
      "##665": 6876,
      "##666": 6877,
      "##6618": 6878,
      "##2229": 6879,
      "##aky": 6880,
      "serving": 6881,
      "yes440": 6882,
      "yeshere": 6883,
      "conver": 6884,
      "concer": 6885,
      "console": 6886,
      "##scom": 6887,
      "rocks": 6888,
      "##coukexpress": 6889,
      "probs": 6890,
      "probl": 6891,
      "feelin": 6892,
      "dram": 6893,
      "drpd": 6894,
      "dracula": 6895,
      "rights": 6896,
      "rightly": 6897,
      "##embr": 6898,
      "##ematics": 6899,
      "##3091": 6900,
      "##30150pm": 6901,
      "camerav": 6902,
      "cashto": 6903,
      "##lious": 6904,
      "##nog": 6905,
      "saidif": 6906,
      "doinghow": 6907,
      "##2055": 6908,
      "sleepy": 6909,
      "sleepin": 6910,
      "sleepwell": 6911,
      "wwwwin": 6912,
      "wwwfull": 6913,
      "wwwclub": 6914,
      "wwwtcbiz": 6915,
      "wwwmovi": 6916,
      "www0778": 6917,
      "wwwdbuk": 6918,
      "wwwidewcom": 6919,
      "woulda": 6920,
      "##bey": 6921,
      "##behaved": 6922,
      "##comind": 6923,
      "##aps": 6924,
      "##aping": 6925,
      "percent": 6926,
      "permiss": 6927,
      "perhaps": 6928,
      "applic": 6929,
      "applebe": 6930,
      "fucks": 6931,
      "fujits": 6932,
      "pickle": 6933,
      "##ipayut": 6934,
      "##402050": 6935,
      "##407165": 6936,
      "##ists": 6937,
      "##istrator": 6938,
      "grace": 6939,
      "keeps": 6940,
      "sentdate": 6941,
      "##150week": 6942,
      "wishin": 6943,
      "##8034": 6944,
      "##801259": 6945,
      "contacts": 6946,
      "helloooo": 6947,
      "disast": 6948,
      "disapp": 6949,
      "jogging": 6950,
      "jolly": 6951,
      "joanna": 6952,
      "##lose": 6953,
      "##loving": 6954,
      "gudk": 6955,
      "gudnit": 6956,
      "##inds": 6957,
      "##india": 6958,
      "##indgi": 6959,
      "specific": 6960,
      "datz": 6961,
      "datoday": 6962,
      "holy": 6963,
      "hockey": 6964,
      "##who": 6965,
      "entire": 6966,
      "entertain": 6967,
      "##1030": 6968,
      "101": 6969,
      "10ppm": 6970,
      "##4589": 6971,
      "##45po": 6972,
      "##4553": 6973,
      "##45678": 6974,
      "##8812": 6975,
      "help087187": 6976,
      "help087": 6977,
      "box38": 6978,
      "box177": 6979,
      "box326": 6980,
      "lotta": 6981,
      "lotwill": 6982,
      "0906539": 6983,
      "09065069": 6984,
      "foley": 6985,
      "flame": 6986,
      "flirting": 6987,
      "flaky": 6988,
      "mathe": 6989,
      "maturity": 6990,
      "##dset": 6991,
      "##dsatms": 6992,
      "tonights": 6993,
      "##233": 6994,
      "##231": 6995,
      "##2345678": 6996,
      "##ividual": 6997,
      "placement": 6998,
      "earn": 6999,
      "##pert": 7000,
      "##perate": 7001,
      "compan": 7002,
      "compare": 7003,
      "comprom": 7004,
      "acting": 7005,
      "actor": 7006,
      "acted": 7007,
      "active": 7008,
      "actual": 7009,
      "girld": 7010,
      "sathya": 7011,
      "landlines": 7012,
      "reser": 7013,
      "resend": 7014,
      "resub": 7015,
      "resume": 7016,
      "reschedule": 7017,
      "169": 7018,
      "16only": 7019,
      "scen": 7020,
      "scra": 7021,
      "scrat": 7022,
      "science": 7023,
      "scoring": 7024,
      "scots": 7025,
      "scores": 7026,
      "charles": 7027,
      "buses": 7028,
      "parent": 7029,
      "parco": 7030,
      "##870000": 7031,
      "costing": 7032,
      "wifi": 7033,
      "shoppin": 7034,
      "planet": 7035,
      "employ": 7036,
      "emerg": 7037,
      "##2422": 7038,
      "##2478": 7039,
      "##2414": 7040,
      "##2450p": 7041,
      "##240060": 7042,
      "##adew": 7043,
      "186150": 7044,
      "18ptxt": 7045,
      "80086": 7046,
      "cris": 7047,
      "crore": 7048,
      "cruc": 7049,
      "cr01327": 7050,
      "payed": 7051,
      "payee": 7052,
      "payment": 7053,
      "schedule": 7054,
      "##heart": 7055,
      "boyfriend": 7056,
      "bird": 7057,
      "name1": 7058,
      "name2": 7059,
      "##7797": 7060,
      "##7763": 7061,
      "##217": 7062,
      "##2159": 7063,
      "##21323": 7064,
      "##21230": 7065,
      "progr": 7066,
      "proverb": 7067,
      "secs": 7068,
      "##341": 7069,
      "##34396": 7070,
      "##604": 7071,
      "##608": 7072,
      "##606": 7073,
      "##6091": 7074,
      "##60665": 7075,
      "realise": 7076,
      "##ionsmscom": 7077,
      "100000": 7078,
      "becaus": 7079,
      "driver": 7080,
      "funk": 7081,
      "funct": 7082,
      "funeral": 7083,
      "funky": 7084,
      "slice": 7085,
      "slide": 7086,
      "slots": 7087,
      "slightly": 7088,
      "sunlight": 7089,
      "##gger": 7090,
      "infections": 7091,
      "infront": 7092,
      "classes": 7093,
      "finewhen": 7094,
      "trips": 7095,
      "wkg": 7096,
      "wkent150p": 7097,
      "hearts": 7098,
      "heartgn": 7099,
      "twenty": 7100,
      "twilight": 7101,
      "useful": 7102,
      "decimal": 7103,
      "deciding": 7104,
      "decisions": 7105,
      "jobs": 7106,
      "laund": 7107,
      "xxxxx": 7108,
      "xxxxxxx": 7109,
      "xxxmobile": 7110,
      "##114": 7111,
      "##118": 7112,
      "##117": 7113,
      "##1182": 7114,
      "0870k": 7115,
      "087044": 7116,
      "087075": 7117,
      "08708034": 7118,
      "08706091": 7119,
      "enjoyin": 7120,
      "addams": 7121,
      "ahhh": 7122,
      "ahsen": 7123,
      "##clark": 7124,
      "##cltd": 7125,
      "sms08718727870": 7126,
      "12mths": 7127,
      "bedrm": 7128,
      "housewives": 7129,
      "lookatme": 7130,
      "dipped": 7131,
      "diwali": 7132,
      "hurting": 7133,
      "hurried": 7134,
      "pale": 7135,
      "pobox12": 7136,
      "pobox45w": 7137,
      "guessing": 7138,
      "0905624": 7139,
      "sweets": 7140,
      "sweetie": 7141,
      "sweetheart": 7142,
      "wrc": 7143,
      "wrk": 7144,
      "wren": 7145,
      "wrote": 7146,
      "wrnog": 7147,
      "##18s": 7148,
      "##1896": 7149,
      "##roit": 7150,
      "##road": 7151,
      "##roenter": 7152,
      "2007": 7153,
      "20000": 7154,
      "##onsider": 7155,
      "luvs": 7156,
      "birthdate": 7157,
      "sw7": 7158,
      "swt": 7159,
      "swiss": 7160,
      "swatch": 7161,
      "sw73": 7162,
      "switch": 7163,
      "simpler": 7164,
      "tming": 7165,
      "half8th": 7166,
      "shitload": 7167,
      "worldvery": 7168,
      "submit": 7169,
      "expired": 7170,
      "receivea": 7171,
      "dads": 7172,
      "skyp": 7173,
      "attract": 7174,
      "wordstart": 7175,
      "complet": 7176,
      "completed": 7177,
      "polyh": 7178,
      "borin": 7179,
      "borrow": 7180,
      "easily": 7181,
      "puttin": 7182,
      "##quest": 7183,
      "##quiz": 7184,
      "stays": 7185,
      "stayin": 7186,
      "stayed": 7187,
      "prince": 7188,
      "##andsaid": 7189,
      "08000407165": 7190,
      "080007763": 7191,
      "##coukgames": 7192,
      "denis": 7193,
      "elab": 7194,
      "sirs": 7195,
      "##phs": 7196,
      "joining": 7197,
      "##125": 7198,
      "##1282": 7199,
      "heartheart": 7200,
      "whatsup": 7201,
      "##383": 7202,
      "##382422": 7203,
      "##subs16": 7204,
      "invaders": 7205,
      "posts": 7206,
      "postcard": 7207,
      "offerthe": 7208,
      "huge": 7209,
      "hugs": 7210,
      "literally": 7211,
      "##165": 7212,
      "##162414": 7213,
      "##78com": 7214,
      "##corn": 7215,
      "##correct": 7216,
      "##ensus": 7217,
      "fucked": 7218,
      "0906121323": 7219,
      "answered": 7220,
      "crap": 7221,
      "craziest": 7222,
      "detail": 7223,
      "detroit": 7224,
      "painting": 7225,
      "surr": 7226,
      "survey": 7227,
      "##ankcom": 7228,
      "forgotten": 7229,
      "suppli": 7230,
      "suppose": 7231,
      "networking": 7232,
      "networks": 7233,
      "difference": 7234,
      "##14823": 7235,
      "##iyag": 7236,
      "##iyaras": 7237,
      "indeed": 7238,
      "indicate": 7239,
      "indyar": 7240,
      "independ": 7241,
      "individual": 7242,
      "logos": 7243,
      "monkey": 7244,
      "monkeys": 7245,
      "musthu": 7246,
      "interfl": 7247,
      "readers": 7248,
      "conform": 7249,
      "confused": 7250,
      "confuses": 7251,
      "ringtoneget": 7252,
      "sitll": 7253,
      "regret": 7254,
      "heads": 7255,
      "headin": 7256,
      "heading": 7257,
      "mails": 7258,
      "mailbox": 7259,
      "mostly": 7260,
      "tmrw": 7261,
      "##ikkum": 7262,
      "cutting": 7263,
      "sinco": 7264,
      "undrst": 7265,
      "##frmmob": 7266,
      "cheat": 7267,
      "cheese": 7268,
      "cheating": 7269,
      "color": 7270,
      "evenings": 7271,
      "schools": 7272,
      "##ancial": 7273,
      "0800288": 7274,
      "0800634": 7275,
      "09066350": 7276,
      "090663806": 7277,
      "09066382422": 7278,
      "gifted": 7279,
      "kindly": 7280,
      "testing": 7281,
      "##elly": 7282,
      "##152": 7283,
      "##1529": 7284,
      "##1560665": 7285,
      "##99801": 7286,
      "150pday": 7287,
      "150pwk": 7288,
      "08718729": 7289,
      "08718727870": 7290,
      "underwear": 7291,
      "apart": 7292,
      "##lievable": 7293,
      "##693": 7294,
      "##2893": 7295,
      "##meet": 7296,
      "ref9": 7297,
      "refer": 7298,
      "refund": 7299,
      "refilled": 7300,
      "strange": 7301,
      "stranger": 7302,
      "colours": 7303,
      "clever": 7304,
      "kkwhere": 7305,
      "kkwhen": 7306,
      "kkwhy": 7307,
      "terror": 7308,
      "terrific": 7309,
      "##4447": 7310,
      "beauty": 7311,
      "engin": 7312,
      "questionstd": 7313,
      "113": 7314,
      "250k": 7315,
      "corr": 7316,
      "err": 7317,
      "ericsson": 7318,
      "eveb": 7319,
      "hardly": 7320,
      "##tcs": 7321,
      "delete": 7322,
      "delhi": 7323,
      "messagesome": 7324,
      "opening": 7325,
      "curry": 7326,
      "fastest": 7327,
      "hoped": 7328,
      "nydc": 7329,
      "##32584": 7330,
      "##ukcom": 7331,
      "promo": 7332,
      "club4": 7333,
      "smiled": 7334,
      "age23": 7335,
      "httptms": 7336,
      "kegger": 7337,
      "nte": 7338,
      "raed": 7339,
      "rael": 7340,
      "singing": 7341,
      "visionsmscom": 7342,
      "##iba": 7343,
      "##ibankcom": 7344,
      "##w1a7rw": 7345,
      "trains": 7346,
      "privacy": 7347,
      "picsfree": 7348,
      "09058095": 7349,
      "09058099801": 7350,
      "dreamsmuah": 7351,
      "datebox": 7352,
      "treated": 7353,
      "warning": 7354,
      "warrant": 7355,
      "##atchee": 7356,
      "inconven": 7357,
      "incredible": 7358,
      "inconsider": 7359,
      "forgets": 7360,
      "08712101": 7361,
      "08712402050": 7362,
      "drinkin": 7363,
      "20pmin": 7364,
      "801": 7365,
      "8077": 7366,
      "80608": 7367,
      "bills": 7368,
      "billion": 7369,
      "court": 7370,
      "farm": 7371,
      "galileo": 7372,
      "mids": 7373,
      "retrie": 7374,
      "sumthin": 7375,
      "tiwary": 7376,
      "tomocant": 7377,
      "install": 7378,
      "installing": 7379,
      "##optouth": 7380,
      "secretly": 7381,
      "secretary": 7382,
      "httpcare": 7383,
      "horo": 7384,
      "kidding": 7385,
      "papers": 7386,
      "##75over": 7387,
      "##moby": 7388,
      "##mobsems": 7389,
      "##morefrmmob": 7390,
      "##moremobsems": 7391,
      "lovers": 7392,
      "sells": 7393,
      "max7": 7394,
      "msgsd": 7395,
      "msgs150p": 7396,
      "downloaded": 7397,
      "snowman": 7398,
      "300p": 7399,
      "distract": 7400,
      "faith": 7401,
      "jaya": 7402,
      "motiv": 7403,
      "purse": 7404,
      "restock": 7405,
      "restaurant": 7406,
      "restrict": 7407,
      "size": 7408,
      "lovingly": 7409,
      "excuses": 7410,
      "quizwin": 7411,
      "transport": 7412,
      "transfr": 7413,
      "subscript": 7414,
      "0905809445": 7415,
      "b4190": 7416,
      "desert": 7417,
      "desires": 7418,
      "descri": 7419,
      "despite": 7420,
      "desperate": 7421,
      "fights": 7422,
      "##86200": 7423,
      "reasonable": 7424,
      "semi": 7425,
      "mahal": 7426,
      "ni8swt": 7427,
      "25f": 7428,
      "30pptxt": 7429,
      "69696": 7430,
      "69669": 7431,
      "69698": 7432,
      "83383": 7433,
      "donate": 7434,
      "donno": 7435,
      "eg23": 7436,
      "soul": 7437,
      "silver": 7438,
      "silence": 7439,
      "silently": 7440,
      "##huag": 7441,
      "annie": 7442,
      "annivers": 7443,
      "calm": 7444,
      "require": 7445,
      "discreet": 7446,
      "disclose": 7447,
      "correction": 7448,
      "40533": 7449,
      "base": 7450,
      "ibn": 7451,
      "owns": 7452,
      "petey": 7453,
      "##46899": 7454,
      "##61104": 7455,
      "##61xn": 7456,
      "##ethanks": 7457,
      "location": 7458,
      "solved": 7459,
      "dealing": 7460,
      "screamed": 7461,
      "difficulties": 7462,
      "090663643": 7463,
      "09066364589": 7464,
      "confirmd": 7465,
      "02073": 7466,
      "020903": 7467,
      "coping": 7468,
      "deepak": 7469,
      "figures": 7470,
      "grave": 7471,
      "ruin": 7472,
      "ruining": 7473,
      "salon": 7474,
      "trav": 7475,
      "traffic": 7476,
      "##youcouk": 7477,
      "##737": 7478,
      "##mark": 7479,
      "##msconet": 7480,
      "##delious": 7481,
      "depos": 7482,
      "department": 7483,
      "superb": 7484,
      "superior": 7485,
      "admit": 7486,
      "paperwork": 7487,
      "edison": 7488,
      "europe": 7489,
      "eurodisinc": 7490,
      "filling": 7491,
      "filled": 7492,
      "falling": 7493,
      "georg": 7494,
      "gaytext": 7495,
      "module": 7496,
      "modules": 7497,
      "nahi": 7498,
      "polo": 7499,
      "politic": 7500,
      "signific": 7501,
      "rewarding": 7502,
      "staring": 7503,
      "waht": 7504,
      "connections": 7505,
      "090640121": 7506,
      "09064017": 7507,
      "090640190": 7508,
      "09064011000": 7509,
      "disturbing": 7510,
      "hospitals": 7511,
      "077426": 7512,
      "0776xxxxxxx": 7513,
      "07734396": 7514,
      "07786200": 7515,
      "28th": 7516,
      "28days": 7517,
      "3650": 7518,
      "3680": 7519,
      "450p": 7520,
      "450ppw": 7521,
      "cdgt": 7522,
      "genius": 7523,
      "kickoff": 7524,
      "miserable": 7525,
      "misbehaved": 7526,
      "mistakes": 7527,
      "redred": 7528,
      "reduce": 7529,
      "randy": 7530,
      "sarasota": 7531,
      "vegas": 7532,
      "##viking": 7533,
      "##viatv": 7534,
      "##alyam": 7535,
      "cancelled": 7536,
      "officially": 7537,
      "08712400": 7538,
      "prepared": 7539,
      "prepaid": 7540,
      "prepayment": 7541,
      "call2optoutj": 7542,
      "call2optoutn9d": 7543,
      "call2optout674": 7544,
      "call2optoutlf56": 7545,
      "85069": 7546,
      "beneath": 7547,
      "bagi": 7548,
      "l8tr": 7549,
      "wasted": 7550,
      "##uccino": 7551,
      "##goin": 7552,
      "##going": 7553,
      "##daq": 7554,
      "##cm61xn": 7555,
      "##sthis": 7556,
      "relatives": 7557,
      "shoes": 7558,
      "shoving": 7559,
      "shocking": 7560,
      "splash": 7561,
      "closes": 7562,
      "blessing": 7563,
      "blessed": 7564,
      "opinions": 7565,
      "fixedline": 7566,
      "153": 7567,
      "15pmin": 7568,
      "2morro": 7569,
      "88088": 7570,
      "bids": 7571,
      "burning": 7572,
      "freering": 7573,
      "freesend": 7574,
      "freedom": 7575,
      "jeans": 7576,
      "o2fwd": 7577,
      "o2coukgames": 7578,
      "panic": 7579,
      "popcorn": 7580,
      "toughest": 7581,
      "vibr": 7582,
      "##121318": 7583,
      "##lsupl": 7584,
      "steve": 7585,
      "steal": 7586,
      "dollar": 7587,
      "practice": 7588,
      "practical": 7589,
      "##ologist": 7590,
      "explosive": 7591,
      "messaging": 7592,
      "messaged": 7593,
      "08712317": 7594,
      "bloodblo": 7595,
      "condition": 7596,
      "conducts": 7597,
      "appreciated": 7598,
      "custcare087187": 7599,
      "reminding": 7600,
      "090617438": 7601,
      "09061743806": 7602,
      "0906174338": 7603,
      "09061744553": 7604,
      "hotels": 7605,
      "passwordsatms": 7606,
      "wwwldewcomsubs16": 7607,
      "21870000": 7608,
      "2wt": 7609,
      "2wks": 7610,
      "2wax": 7611,
      "6031": 7612,
      "juan": 7613,
      "jiayin": 7614,
      "jenny": 7615,
      "lyf": 7616,
      "lyfu": 7617,
      "mandan": 7618,
      "pattern": 7619,
      "tsandcs": 7620,
      "tnc": 7621,
      "vomiting": 7622,
      "##bincouk": 7623,
      "##apply": 7624,
      "##ences": 7625,
      "impatient": 7626,
      "brandy": 7627,
      "dressed": 7628,
      "strongbu": 7629,
      "clearing": 7630,
      "clearly": 7631,
      "09058094599": 7632,
      "09058094597": 7633,
      "09058094565": 7634,
      "24hrs": 7635,
      "breath": 7636,
      "garbage": 7637,
      "hrishi": 7638,
      "kills": 7639,
      "killing": 7640,
      "killed": 7641,
      "keralacir": 7642,
      "mila": 7643,
      "nitros": 7644,
      "orig": 7645,
      "woot": 7646,
      "wales": 7647,
      "yunny": 7648,
      "##270819": 7649,
      "##2stopsms": 7650,
      "##ricity": 7651,
      "##pobox45po": 7652,
      "formclark": 7653,
      "weakness": 7654,
      "##umbling": 7655,
      "speeding": 7656,
      "speedchat": 7657,
      "08081560665": 7658,
      "affectionate": 7659,
      "10am9pm": 7660,
      "receipts": 7661,
      "processed": 7662,
      "darlings": 7663,
      "09061702893": 7664,
      "080029860": 7665,
      "discussed": 7666,
      "geeeee": 7667,
      "celebration": 7668,
      "82277unsub": 7669,
      "irritates": 7670,
      "violet": 7671,
      "violated": 7672,
      "07821230": 7673,
      "1hr": 7674,
      "89693": 7675,
      "83049": 7676,
      "88888": 7677,
      "88877": 7678,
      "banned": 7679,
      "brows": 7680,
      "brown": 7681,
      "cnn": 7682,
      "ecst": 7683,
      "eighth": 7684,
      "easter": 7685,
      "eastenders": 7686,
      "grown": 7687,
      "growing": 7688,
      "limiting": 7689,
      "mtalk": 7690,
      "mca": 7691,
      "mcat": 7692,
      "potter": 7693,
      "slip": 7694,
      "talks": 7695,
      "verified": 7696,
      "westlife": 7697,
      "##tru": 7698,
      "##iiii": 7699,
      "##respect": 7700,
      "##antha": 7701,
      "hamster": 7702,
      "beloved": 7703,
      "##eremember": 7704,
      "lionm": 7705,
      "lionp": 7706,
      "atlast": 7707,
      "##sexcellent": 7708,
      "prabha": 7709,
      "demand": 7710,
      "brothers": 7711,
      "buffet": 7712,
      "drunken": 7713,
      "wwwtxt2shop": 7714,
      "wwwtxttow": 7715,
      "ideal": 7716,
      "premier": 7717,
      "premium": 7718,
      "##prov": 7719,
      "0905000180": 7720,
      "09050003091": 7721,
      "avoid": 7722,
      "avoiding": 7723,
      "09061221061": 7724,
      "08712405022": 7725,
      "08452810075over": 7726,
      "weirdest": 7727,
      "txtauctiont": 7728,
      "447797": 7729,
      "89070": 7730,
      "89080": 7731,
      "curious": 7732,
      "ctter": 7733,
      "duchess": 7734,
      "doubt": 7735,
      "dedicate": 7736,
      "dedicated": 7737,
      "effect": 7738,
      "effects": 7739,
      "flip": 7740,
      "flies": 7741,
      "jacket": 7742,
      "jackpot": 7743,
      "jordantxt": 7744,
      "ls1": 7745,
      "ls15h": 7746,
      "nicenice": 7747,
      "ovulation": 7748,
      "pt2": 7749,
      "pushes": 7750,
      "rumour": 7751,
      "wiskey": 7752,
      "##babes": 7753,
      "##uxe": 7754,
      "##romantic": 7755,
      "##podnet": 7756,
      "recovery": 7757,
      "shipped": 7758,
      "helen": 7759,
      "helpline": 7760,
      "necessary": 7761,
      "necessarily": 7762,
      "cooked": 7763,
      "cookies": 7764,
      "amongst": 7765,
      "properly": 7766,
      "property": 7767,
      "allowed": 7768,
      "sufficient": 7769,
      "position": 7770,
      "affair": 7771,
      "expression": 7772,
      "constant": 7773,
      "convinced": 7774,
      "convincing": 7775,
      "mornin": 7776,
      "careswt": 7777,
      "satisfy": 7778,
      "peaceful": 7779,
      "scotch": 7780,
      "calls1minmoremobsems": 7781,
      "studentsthis": 7782,
      "bcm428": 7783,
      "bcm1896": 7784,
      "favorite": 7785,
      "mmmmmm": 7786,
      "gmgngegnt": 7787,
      "08701417012150p": 7788,
      "piece": 7789,
      "pongaldo": 7790,
      "071104": 7791,
      "0712345678": 7792,
      "ayn": 7793,
      "aeronaut": 7794,
      "aeroplane": 7795,
      "astr": 7796,
      "aunty": 7797,
      "aunts": 7798,
      "division": 7799,
      "divorce": 7800,
      "dancing": 7801,
      "eek": 7802,
      "electricity": 7803,
      "jokin": 7804,
      "langport": 7805,
      "language": 7806,
      "mnths": 7807,
      "mk45": 7808,
      "mk17": 7809,
      "mesages": 7810,
      "m221bp": 7811,
      "m227xy": 7812,
      "massive": 7813,
      "nagar": 7814,
      "oreo": 7815,
      "penis": 7816,
      "rcv": 7817,
      "sacrifice": 7818,
      "sensitive": 7819,
      "taylor": 7820,
      "virg": 7821,
      "virgin": 7822,
      "w1j": 7823,
      "yeh": 7824,
      "yelling": 7825,
      "yellow": 7826,
      "zoe": 7827,
      "##28876": 7828,
      "##livecomind": 7829,
      "thesis": 7830,
      "castor": 7831,
      "sticky": 7832,
      "shracom": 7833,
      "necklace": 7834,
      "##ampton": 7835,
      "##amptake": 7836,
      "printed": 7837,
      "devouring": 7838,
      "replacement": 7839,
      "british": 7840,
      "britney": 7841,
      "evrydy": 7842,
      "administrator": 7843,
      "accomod": 7844,
      "accommod": 7845,
      "##ployed": 7846,
      "continue": 7847,
      "lucozade": 7848,
      "lucozadecouk": 7849,
      "wwwtextcomp": 7850,
      "wwwtextpodnet": 7851,
      "approach": 7852,
      "removed": 7853,
      "removal": 7854,
      "nokia6600": 7855,
      "nokia6650": 7856,
      "090651740": 7857,
      "0906517114": 7858,
      "flowing": 7859,
      "mathematics": 7860,
      "##39680": 7861,
      "##movieclub": 7862,
      "complaint": 7863,
      "elaine": 7864,
      "taxi": 7865,
      "tones2u": 7866,
      "tones2youcouk": 7867,
      "mumtazs": 7868,
      "##1513": 7869,
      "##boarding": 7870,
      "responsibility": 7871,
      "07808": 7872,
      "sarcastic": 7873,
      "sarcasm": 7874,
      "spoiled": 7875,
      "celeb4": 7876,
      "benefits": 7877,
      "beneficiary": 7878,
      "prescription": 7879,
      "08719181513": 7880,
      "windows": 7881,
      "creepy": 7882,
      "renewal": 7883,
      "ultimatum": 7884,
      "##buddycom": 7885,
      "0871277810810": 7886,
      "bloombergcom": 7887,
      "0911": 7888,
      "008704050406": 7889,
      "1winaweek": 7890,
      "2yr": 7891,
      "2gthr": 7892,
      "26th": 7893,
      "31pmsg150p": 7894,
      "447801259": 7895,
      "78pmin": 7896,
      "86888": 7897,
      "816183": 7898,
      "bleh": 7899,
      "brief": 7900,
      "brah": 7901,
      "burns": 7902,
      "ethreats": 7903,
      "faggy": 7904,
      "ghost": 7905,
      "gpu": 7906,
      "gamestar": 7907,
      "hyde": 7908,
      "henry": 7909,
      "jsut": 7910,
      "japanese": 7911,
      "kaiez": 7912,
      "mental": 7913,
      "nuther": 7914,
      "nasdaq": 7915,
      "punish": 7916,
      "ratetcs": 7917,
      "racing": 7918,
      "signing": 7919,
      "snogs": 7920,
      "turning": 7921,
      "taste": 7922,
      "tulip": 7923,
      "vivek": 7924,
      "wiht": 7925,
      "wicklow": 7926,
      "##139wa": 7927,
      "##4235wc1n3xx": 7928,
      "##76969": 7929,
      "##2tg150p": 7930,
      "##ockscom": 7931,
      "##music": 7932,
      "##insha": 7933,
      "tomorro": 7934,
      "tomeandsaid": 7935,
      "##regret": 7936,
      "##itinadew": 7937,
      "hallaq": 7938,
      "capital": 7939,
      "calculation": 7940,
      "itcould": 7941,
      "reboot": 7942,
      "shagged": 7943,
      "shahj": 7944,
      "improve": 7945,
      "##ldnw1a7rw": 7946,
      "no81151": 7947,
      "nowsky": 7948,
      "telephone": 7949,
      "cherish": 7950,
      "fringe": 7951,
      "updatenow": 7952,
      "prakasam": 7953,
      "propsd": 7954,
      "alaipayut": 7955,
      "depressed": 7956,
      "##olutly": 7957,
      "day2find": 7958,
      "spirit": 7959,
      "clothes": 7960,
      "combine": 7961,
      "sendername": 7962,
      "poker": 7963,
      "smashed": 7964,
      "150perwksub": 7965,
      "09094646899": 7966,
      "090715124": 7967,
      "exorcist": 7968,
      "unfortunately": 7969,
      "unconsc": 7970,
      "sleepsweet": 7971,
      "wwwsmsconet": 7972,
      "approx": 7973,
      "caroline": 7974,
      "##404000": 7975,
      "granite": 7976,
      "groovy": 7977,
      "help0871240060": 7978,
      "box334sk38": 7979,
      "particular": 7980,
      "partnership": 7981,
      "scrounge": 7982,
      "paragon": 7983,
      "cricketer": 7984,
      "087092229": 7985,
      "0870241182": 7986,
      "diamonds": 7987,
      "swoop": 7988,
      "attached": 7989,
      "09066358152": 7990,
      "08718730666": 7991,
      "08718738001": 7992,
      "##ukkal": 7993,
      "prompts": 7994,
      "tscs087147403231winawkage16": 7995,
      "natalja": 7996,
      "increments": 7997,
      "adventure": 7998,
      "subscribe6gbpm": 7999,
      "09058091854": 8000,
      "desparate": 8001,
      "6986618": 8002,
      "annoying": 8003,
      "educational": 8004,
      "tortilla": 8005,
      "cuddling": 8006,
      "professors": 8007,
      "httpwwwetlpcoukexpress": 8008,
      "practicing": 8009,
      "icicibankcom": 8010,
      "psych": 8011,
      "tsunamis": 8012,
      "tirunelvali": 8013,
      "09061701461": 8014,
      "northampton": 8015,
      "occupy": 8016,
      "wwwsmsacunat270819": 8017,
      "recognise": 8018,
      "calls1minmobsmorelkpobox177hp51fl": 8019,
      "08717507711": 8020,
      "01223585334": 8021,
      "08719180248": 8022,
      "09065989182": 8023,
      "0578": 8024,
      "1unbreak": 8025,
      "2geva": 8026,
      "2untamed": 8027,
      "2rcv": 8028,
      "3unkempt": 8029,
      "311004": 8030,
      "4eva": 8031,
      "4tctxt": 8032,
      "41685": 8033,
      "4txt120": 8034,
      "4some1": 8035,
      "4403ldnw1a7rw": 8036,
      "5249": 8037,
      "61200": 8038,
      "61610": 8039,
      "7876150ppm": 8040,
      "81010": 8041,
      "88222": 8042,
      "airtel": 8043,
      "aproach": 8044,
      "bulbs": 8045,
      "btooth": 8046,
      "bristol": 8047,
      "csh11": 8048,
      "cousin": 8049,
      "durban": 8050,
      "dhina": 8051,
      "ebay": 8052,
      "epsilon": 8053,
      "fgkslp": 8054,
      "furniture": 8055,
      "ganesh": 8056,
      "gastroenter": 8057,
      "gibbs": 8058,
      "g696ga": 8059,
      "hppnss": 8060,
      "hubby": 8061,
      "julian": 8062,
      "jsco": 8063,
      "kl341": 8064,
      "kudiyaras": 8065,
      "kothi": 8066,
      "kavalan": 8067,
      "kappa": 8068,
      "lccltd": 8069,
      "munsters": 8070,
      "mokka": 8071,
      "mitsake": 8072,
      "nasty": 8073,
      "oooh": 8074,
      "otside": 8075,
      "pimpl": 8076,
      "p399": 8077,
      "river": 8078,
      "rstm": 8079,
      "royal": 8080,
      "rhythm": 8081,
      "scold": 8082,
      "tacos": 8083,
      "usher": 8084,
      "vague": 8085,
      "vewy": 8086,
      "vaazhth": 8087,
      "widelivecomind": 8088,
      "wmlid": 8089,
      "##evening": 8090,
      "##82050couk": 8091,
      "##uviri": 8092,
      "##turnedint": 8093,
      "##n146tf": 8094,
      "##prizes": 8095,
      "##9am7pm": 8096,
      "therere": 8097,
      "threw": 8098,
      "thousands": 8099,
      "toopray": 8100,
      "toshiba": 8101,
      "##orsglsupl": 8102,
      "##essexcm61xn": 8103,
      "animation": 8104,
      "anthony": 8105,
      "##etriviatv": 8106,
      "##etcpractice": 8107,
      "innocent": 8108,
      "cappuccino": 8109,
      "causing": 8110,
      "items": 8111,
      "itwhichturnedint": 8112,
      "reverse": 8113,
      "reckon": 8114,
      "recession": 8115,
      "stretch": 8116,
      "stamped": 8117,
      "call09050000327": 8118,
      "shampain": 8119,
      "loxahatchee": 8120,
      "improved": 8121,
      "oranges": 8122,
      "chances": 8123,
      "chocolate": 8124,
      "frauds": 8125,
      "plaza": 8126,
      "algarve": 8127,
      "defeat": 8128,
      "deeraj": 8129,
      "dehyd": 8130,
      "splleing": 8131,
      "08700621170150p": 8132,
      "illspeak": 8133,
      "commercial": 8134,
      "fineabsolutly": 8135,
      "phoenix": 8136,
      "maangalyam": 8137,
      "exmpel": 8138,
      "sheffield": 8139,
      "##706009": 8140,
      "unemployed": 8141,
      "unbelievable": 8142,
      "unintention": 8143,
      "unnecessarily": 8144,
      "truffles": 8145,
      "babysit": 8146,
      "greatbhaji": 8147,
      "mojibiola": 8148,
      "acoentry41": 8149,
      "acl03530150pm": 8150,
      "academic": 8151,
      "blonde": 8152,
      "cameravideo": 8153,
      "sleepwellamptake": 8154,
      "wwwwin82050couk": 8155,
      "wwwfullonsmscom": 8156,
      "wwwmovietriviatv": 8157,
      "www077814823": 8158,
      "wwwdbuknet": 8159,
      "application": 8160,
      "applebees": 8161,
      "fujitsu": 8162,
      "gudnitetcpractice": 8163,
      "help08718728876": 8164,
      "box385": 8165,
      "compromised": 8166,
      "scotsman": 8167,
      "186150morefrmmob": 8168,
      "cr01327bt": 8169,
      "wkent150p16": 8170,
      "laundry": 8171,
      "xxxmobilemovieclub": 8172,
      "08704439680": 8173,
      "08708034412": 8174,
      "08706091795": 8175,
      "addamsfa": 8176,
      "dippeditinadew": 8177,
      "pobox12n146tf": 8178,
      "pobox45w2tg150p": 8179,
      "09056242159": 8180,
      "sw73ss": 8181,
      "skyped": 8182,
      "08000776320": 8183,
      "##1282essexcm61xn": 8184,
      "09061213237": 8185,
      "indyarockscom": 8186,
      "interflora": 8187,
      "undrstnd": 8188,
      "08002888812": 8189,
      "08006344447": 8190,
      "09066350750": 8191,
      "09066380611": 8192,
      "terrorist": 8193,
      "##32584351": 8194,
      "picsfree1": 8195,
      "datebox1282essexcm61xn": 8196,
      "warranty": 8197,
      "inconsiderate": 8198,
      "08712101358": 8199,
      "retrieve": 8200,
      "httpcareers": 8201,
      "b4190604": 8202,
      "anniversary": 8203,
      "09066364311": 8204,
      "02073162414": 8205,
      "georges": 8206,
      "gaytextbuddycom": 8207,
      "politicians": 8208,
      "09064012160": 8209,
      "09064019014": 8210,
      "07742676969": 8211,
      "07734396839": 8212,
      "07786200117": 8213,
      "call2optoutn9dx": 8214,
      "##1213186": 8215,
      "08712317606": 8216,
      "bloodblood": 8217,
      "custcare08718720201": 8218,
      "09061743386": 8219,
      "passwordsatmsms": 8220,
      "wwwldewcomsubs161win150ppmx3": 8221,
      "21870000hi": 8222,
      "2waxsto": 8223,
      "strongbuy": 8224,
      "keralacircle": 8225,
      "##pobox45po139wa": 8226,
      "08002986030": 8227,
      "07821230901": 8228,
      "wwwtxt2shopcom": 8229,
      "wwwtxttowincouk": 8230,
      "09050001808": 8231,
      "08452810075over18s": 8232,
      "txtauctiontxt": 8233,
      "447797706009": 8234,
      "ls15hb": 8235,
      "nicenicehow": 8236,
      "calls1minmoremobsemspobox45po139wa": 8237,
      "bcm4284": 8238,
      "bcm1896wc1n3xx": 8239,
      "07123456789": 8240,
      "aeronautics": 8241,
      "shracomorsglsupl": 8242,
      "accommodation": 8243,
      "lucozadecoukwrc": 8244,
      "wwwtextcompcom": 8245,
      "09065174042": 8246,
      "09065171142stopsms": 8247,
      "447801259231": 8248,
      "wihtuot": 8249,
      "tomeandsaidthis": 8250,
      "alaipayuthe": 8251,
      "help08712400602450p": 8252,
      "box334sk38ch": 8253,
      "08709222922": 8254,
      "0870241182716": 8255,
      "subscribe6gbpmnth": 8256,
      "httpwwwetlpcoukexpressoffer": 8257,
      "wwwsmsacunat27081980": 8258,
      "1unbreakable": 8259,
      "4403ldnw1a7rw18": 8260,
      "gastroenteritis": 8261,
      "kudiyarasu": 8262,
      "vaazhthukkal": 8263,
      "widelivecomindex": 8264,
      "itwhichturnedinto": 8265,
      "www07781482378com": 8266,
      "shracomorsglsuplt10": 8267,
      "02": 8268,
      "06": 8269,
      "0an": 8270,
      "050": 8271,
      "060": 8272,
      "0121": 8273,
      "0125": 8274,
      "061104": 8275,
      "14": 8276,
      "1t": 8277,
      "1c": 8278,
      "1er": 8279,
      "1le": 8280,
      "1im": 8281,
      "1pm": 8282,
      "122": 8283,
      "130": 8284,
      "180": 8285,
      "123": 8286,
      "139": 8287,
      "118": 8288,
      "155": 8289,
      "116": 8290,
      "151": 8291,
      "1min": 8292,
      "146": 8293,
      "1da": 8294,
      "1month": 8295,
      "1app": 8296,
      "1450": 8297,
      "1child": 8298,
      "1yf": 8299,
      "2e": 8300,
      "23": 8301,
      "27": 8302,
      "2i": 8303,
      "2n": 8304,
      "2k": 8305,
      "2im": 8306,
      "2ch": 8307,
      "290": 8308,
      "2na": 8309,
      "266": 8310,
      "2get": 8311,
      "260": 8312,
      "211": 8313,
      "255": 8314,
      "2hrs": 8315,
      "215": 8316,
      "2bo": 8317,
      "2night": 8318,
      "2do": 8319,
      "241": 8320,
      "247": 8321,
      "2when": 8322,
      "2ex": 8323,
      "2yrs": 8324,
      "2nit": 8325,
      "2ho": 8326,
      "2703": 8327,
      "261104": 8328,
      "32": 8329,
      "3s": 8330,
      "3l": 8331,
      "3p": 8332,
      "3xx": 8333,
      "3000": 8334,
      "330": 8335,
      "323": 8336,
      "336": 8337,
      "3opt": 8338,
      "3750": 8339,
      "3mar": 8340,
      "391": 8341,
      "3days": 8342,
      "3x150p": 8343,
      "3mobile": 8344,
      "3230": 8345,
      "32000": 8346,
      "3miles": 8347,
      "31030": 8348,
      "41": 8349,
      "48": 8350,
      "47": 8351,
      "4o": 8352,
      "4p": 8353,
      "46": 8354,
      "49": 8355,
      "4j": 8356,
      "4ut": 8357,
      "471": 8358,
      "4row": 8359,
      "4ward": 8360,
      "415": 8361,
      "428": 8362,
      "4my": 8363,
      "4the": 8364,
      "489": 8365,
      "449": 8366,
      "4give": 8367,
      "4bre": 8368,
      "4few": 8369,
      "4years": 8370,
      "4lux": 8371,
      "42478": 8372,
      "4217": 8373,
      "5s": 8374,
      "5m": 8375,
      "5p": 8376,
      "5im": 8377,
      "5ter": 8378,
      "5ish": 8379,
      "522": 8380,
      "545": 8381,
      "5ful": 8382,
      "526": 8383,
      "528": 8384,
      "5wk": 8385,
      "532": 8386,
      "5month": 8387,
      "5903": 8388,
      "5years": 8389,
      "5dig": 8390,
      "63": 8391,
      "6c": 8392,
      "6z": 8393,
      "650": 8394,
      "6ish": 8395,
      "622": 8396,
      "688": 8397,
      "6230": 8398,
      "627": 8399,
      "6times": 8400,
      "6669": 8401,
      "6missed": 8402,
      "6744": 8403,
      "6ram": 8404,
      "6romantic": 8405,
      "71": 8406,
      "77": 8407,
      "7c": 8408,
      "76": 8409,
      "79": 8410,
      "7z": 8411,
      "700": 8412,
      "7am": 8413,
      "7sh": 8414,
      "7pm": 8415,
      "7ma": 8416,
      "725": 8417,
      "731": 8418,
      "743": 8419,
      "7634": 8420,
      "7ws": 8421,
      "7oz": 8422,
      "7romantic": 8423,
      "84": 8424,
      "88": 8425,
      "8o": 8426,
      "8l": 8427,
      "8000": 8428,
      "8lo": 8429,
      "823": 8430,
      "834": 8431,
      "899": 8432,
      "844": 8433,
      "891": 8434,
      "8ball": 8435,
      "863": 8436,
      "8800": 8437,
      "8att": 8438,
      "8hr": 8439,
      "90": 8440,
      "9y": 8441,
      "97": 8442,
      "95": 8443,
      "9d": 8444,
      "96": 8445,
      "9th": 8446,
      "945": 8447,
      "924": 8448,
      "915": 8449,
      "999": 8450,
      "946": 8451,
      "983": 8452,
      "9fun": 8453,
      "aan": 8454,
      "aid": 8455,
      "ald": 8456,
      "a50": 8457,
      "ack": 8458,
      "aig": 8459,
      "a30": 8460,
      "a150": 8461,
      "a21": 8462,
      "aqu": 8463,
      "auth": 8464,
      "aries": 8465,
      "ajith": 8466,
      "aids": 8467,
      "bh": 8468,
      "bw": 8469,
      "bes": 8470,
      "bom": 8471,
      "bim": 8472,
      "bac": 8473,
      "bust": 8474,
      "bend": 8475,
      "bob": 8476,
      "bant": 8477,
      "bil": 8478,
      "bound": 8479,
      "bong": 8480,
      "bff": 8481,
      "bail": 8482,
      "bunch": 8483,
      "bao": 8484,
      "bian": 8485,
      "bash": 8486,
      "bars": 8487,
      "bpo": 8488,
      "bham": 8489,
      "bhas": 8490,
      "berg": 8491,
      "bolt": 8492,
      "cin": 8493,
      "ced": 8494,
      "cri": 8495,
      "cere": 8496,
      "cone": 8497,
      "cate": 8498,
      "crow": 8499,
      "cia": 8500,
      "couch": 8501,
      "cult": 8502,
      "ctt": 8503,
      "cps": 8504,
      "cert": 8505,
      "cried": 8506,
      "cya": 8507,
      "cops": 8508,
      "cuck": 8509,
      "cthen": 8510,
      "cmon": 8511,
      "census": 8512,
      "dl": 8513,
      "dd": 8514,
      "dor": 8515,
      "dit": 8516,
      "dim": 8517,
      "dust": 8518,
      "dur": 8519,
      "dess": 8520,
      "dus": 8521,
      "dile": 8522,
      "dine": 8523,
      "dice": 8524,
      "dart": 8525,
      "dia": 8526,
      "dlf": 8527,
      "dha": 8528,
      "dys": 8529,
      "dip": 8530,
      "dies": 8531,
      "duff": 8532,
      "dang": 8533,
      "dwn": 8534,
      "dps": 8535,
      "dull": 8536,
      "dual": 8537,
      "dony": 8538,
      "dict": 8539,
      "dled": 8540,
      "dane": 8541,
      "dread": 8542,
      "dump": 8543,
      "dvg": 8544,
      "dying": 8545,
      "ep": 8546,
      "ew": 8547,
      "eq": 8548,
      "est": 8549,
      "eld": 8550,
      "ery": 8551,
      "eter": 8552,
      "esh": 8553,
      "eck": 8554,
      "ett": 8555,
      "e14": 8556,
      "egb": 8557,
      "efreefone": 8558,
      "echo": 8559,
      "ft": 8560,
      "fi": 8561,
      "fw": 8562,
      "fon": 8563,
      "fed": 8564,
      "fle": 8565,
      "fac": 8566,
      "fad": 8567,
      "fest": 8568,
      "fol": 8569,
      "fart": 8570,
      "fain": 8571,
      "fud": 8572,
      "fred": 8573,
      "fff": 8574,
      "fue": 8575,
      "fans": 8576,
      "fox": 8577,
      "fones": 8578,
      "fps": 8579,
      "fne": 8580,
      "fiting": 8581,
      "fmy": 8582,
      "fats": 8583,
      "fated": 8584,
      "fizz": 8585,
      "freen": 8586,
      "fired": 8587,
      "feng": 8588,
      "fals": 8589,
      "foned": 8590,
      "flea": 8591,
      "fassy": 8592,
      "fidal": 8593,
      "fusion": 8594,
      "fumbling": 8595,
      "g2": 8596,
      "gs": 8597,
      "gi": 8598,
      "ger": 8599,
      "gow": 8600,
      "gut": 8601,
      "gri": 8602,
      "gate": 8603,
      "gand": 8604,
      "gif": 8605,
      "gong": 8606,
      "gso": 8607,
      "gep": 8608,
      "geel": 8609,
      "gau": 8610,
      "glo": 8611,
      "gently": 8612,
      "glands": 8613,
      "gower": 8614,
      "gumb": 8615,
      "gsex": 8616,
      "gurl": 8617,
      "gwr": 8618,
      "ht": 8619,
      "hd": 8620,
      "hat": 8621,
      "hut": 8622,
      "hic": 8623,
      "hont": 8624,
      "hust": 8625,
      "hld": 8626,
      "hil": 8627,
      "hers": 8628,
      "hish": 8629,
      "hite": 8630,
      "hos": 8631,
      "hud": 8632,
      "hha": 8633,
      "hous": 8634,
      "hcl": 8635,
      "hits": 8636,
      "hyp": 8637,
      "hates": 8638,
      "hme": 8639,
      "hva": 8640,
      "hiding": 8641,
      "hsb": 8642,
      "hanna": 8643,
      "human": 8644,
      "hubb": 8645,
      "hanks": 8646,
      "hanuman": 8647,
      "iv": 8648,
      "ig": 8649,
      "iri": 8650,
      "ira": 8651,
      "ick": 8652,
      "iren": 8653,
      "iphone": 8654,
      "ijust": 8655,
      "ileave": 8656,
      "jb": 8657,
      "jp": 8658,
      "jj": 8659,
      "jon": 8660,
      "jet": 8661,
      "jot": 8662,
      "jac": 8663,
      "jont": 8664,
      "jod": 8665,
      "jee": 8666,
      "jur": 8667,
      "jab": 8668,
      "jos": 8669,
      "jud": 8670,
      "jide": 8671,
      "jak": 8672,
      "jade": 8673,
      "jones": 8674,
      "jett": 8675,
      "j89": 8676,
      "jaz": 8677,
      "jerem": 8678,
      "jorg": 8679,
      "jacks": 8680,
      "jung": 8681,
      "jules": 8682,
      "junna": 8683,
      "jelly": 8684,
      "kv": 8685,
      "ks": 8686,
      "kh": 8687,
      "ker": 8688,
      "kar": 8689,
      "kis": 8690,
      "kic": 8691,
      "kim": 8692,
      "kore": 8693,
      "k71": 8694,
      "kail": 8695,
      "kip": 8696,
      "kint": 8697,
      "kel": 8698,
      "kits": 8699,
      "kens": 8700,
      "kait": 8701,
      "kath": 8702,
      "kaa": 8703,
      "kbut": 8704,
      "k61": 8705,
      "kyou": 8706,
      "kdo": 8707,
      "kote": 8708,
      "karn": 8709,
      "kgood": 8710,
      "keng": 8711,
      "kilos": 8712,
      "kgive": 8713,
      "kfc": 8714,
      "kama": 8715,
      "ktv": 8716,
      "kwish": 8717,
      "korte": 8718,
      "ln": 8719,
      "len": 8720,
      "lon": 8721,
      "lan": 8722,
      "les": 8723,
      "lut": 8724,
      "las": 8725,
      "lun": 8726,
      "lul": 8727,
      "lage": 8728,
      "lub": 8729,
      "lak": 8730,
      "lav": 8731,
      "lma": 8732,
      "lank": 8733,
      "lanc": 8734,
      "lamp": 8735,
      "limited": 8736,
      "lrg": 8737,
      "linds": 8738,
      "ml": 8739,
      "mf": 8740,
      "mre": 8741,
      "mit": 8742,
      "mic": 8743,
      "mone": 8744,
      "mth": 8745,
      "mol": 8746,
      "mile": 8747,
      "mack": 8748,
      "mia": 8749,
      "mary": 8750,
      "mss": 8751,
      "mouse": 8752,
      "m39": 8753,
      "mgs": 8754,
      "mens": 8755,
      "m100": 8756,
      "meth": 8757,
      "mfl": 8758,
      "mund": 8759,
      "mquiz": 8760,
      "miiii": 8761,
      "meremember": 8762,
      "n8": 8763,
      "nm": 8764,
      "ng": 8765,
      "nr": 8766,
      "nz": 8767,
      "nin": 8768,
      "nar": 8769,
      "nri": 8770,
      "nam": 8771,
      "nver": 8772,
      "nall": 8773,
      "nud": 8774,
      "nation": 8775,
      "nach": 8776,
      "nys": 8777,
      "nip": 8778,
      "nange": 8779,
      "nause": 8780,
      "nik": 8781,
      "nts": 8782,
      "nails": 8783,
      "nesh": 8784,
      "nord": 8785,
      "nhs": 8786,
      "nerv": 8787,
      "nalla": 8788,
      "nino": 8789,
      "njan": 8790,
      "ot": 8791,
      "oll": 8792,
      "oly": 8793,
      "oce": 8794,
      "oct": 8795,
      "owe": 8796,
      "osc": 8797,
      "oath": 8798,
      "oga": 8799,
      "ovr": 8800,
      "oda": 8801,
      "oja": 8802,
      "ooh": 8803,
      "oxy": 8804,
      "ogun": 8805,
      "obey": 8806,
      "pu": 8807,
      "pou": 8808,
      "por": 8809,
      "pon": 8810,
      "pes": 8811,
      "pis": 8812,
      "ply": 8813,
      "pas": 8814,
      "pal": 8815,
      "pill": 8816,
      "pad": 8817,
      "pee": 8818,
      "pant": 8819,
      "pest": 8820,
      "pea": 8821,
      "pile": 8822,
      "psh": 8823,
      "ppt": 8824,
      "pud": 8825,
      "peep": 8826,
      "pans": 8827,
      "pity": 8828,
      "pure": 8829,
      "punch": 8830,
      "pause": 8831,
      "pier": 8832,
      "psp": 8833,
      "px3": 8834,
      "paces": 8835,
      "pthis": 8836,
      "pants": 8837,
      "pump": 8838,
      "pdat": 8839,
      "pears": 8840,
      "pints": 8841,
      "pases": 8842,
      "piah": 8843,
      "packing": 8844,
      "pandy": 8845,
      "qb": 8846,
      "qi": 8847,
      "qing": 8848,
      "qet": 8849,
      "qly": 8850,
      "rv": 8851,
      "r8": 8852,
      "rh": 8853,
      "rr": 8854,
      "rp": 8855,
      "rin": 8856,
      "rit": 8857,
      "ral": 8858,
      "rim": 8859,
      "ram": 8860,
      "rus": 8861,
      "rol": 8862,
      "rile": 8863,
      "rout": 8864,
      "rct": 8865,
      "rud": 8866,
      "rag": 8867,
      "rpl": 8868,
      "rup": 8869,
      "rough": 8870,
      "rip": 8871,
      "rgent": 8872,
      "rto": 8873,
      "rise": 8874,
      "rah": 8875,
      "rav": 8876,
      "rons": 8877,
      "rounds": 8878,
      "rdy": 8879,
      "rats": 8880,
      "renc": 8881,
      "ripp": 8882,
      "rakhesh": 8883,
      "rules": 8884,
      "raping": 8885,
      "rumbling": 8886,
      "sv": 8887,
      "s3": 8888,
      "s8": 8889,
      "sq": 8890,
      "sill": 8891,
      "spp": 8892,
      "snd": 8893,
      "sday": 8894,
      "sall": 8895,
      "sand": 8896,
      "sif": 8897,
      "sink": 8898,
      "scou": 8899,
      "sist": 8900,
      "sind": 8901,
      "swh": 8902,
      "siv": 8903,
      "sang": 8904,
      "surn": 8905,
      "sank": 8906,
      "sames": 8907,
      "sbut": 8908,
      "sash": 8909,
      "slove": 8910,
      "s89": 8911,
      "soph": 8912,
      "sfrom": 8913,
      "sane": 8914,
      "ssi": 8915,
      "sized": 8916,
      "sections": 8917,
      "siva": 8918,
      "srt": 8919,
      "sutra": 8920,
      "section": 8921,
      "santha": 8922,
      "tu": 8923,
      "tg": 8924,
      "td": 8925,
      "tp": 8926,
      "tx": 8927,
      "tes": 8928,
      "tas": 8929,
      "tke": 8930,
      "tad": 8931,
      "tam": 8932,
      "tend": 8933,
      "tun": 8934,
      "tant": 8935,
      "tack": 8936,
      "tiss": 8937,
      "tsh": 8938,
      "tie": 8939,
      "tmorrow": 8940,
      "tue": 8941,
      "tiz": 8942,
      "tix": 8943,
      "teres": 8944,
      "tts": 8945,
      "tens": 8946,
      "tuth": 8947,
      "tune": 8948,
      "t91": 8949,
      "tread": 8950,
      "tunde": 8951,
      "tiny": 8952,
      "uv": 8953,
      "u2": 8954,
      "um": 8955,
      "uw": 8956,
      "uj": 8957,
      "uin": 8958,
      "upp": 8959,
      "uter": 8960,
      "uif": 8961,
      "uup": 8962,
      "uwor": 8963,
      "uoth": 8964,
      "uxxxx": 8965,
      "ucall": 8966,
      "uband": 8967,
      "uhhhh": 8968,
      "uwant": 8969,
      "uaw": 8970,
      "usget": 8971,
      "vo": 8972,
      "vs": 8973,
      "vt": 8974,
      "vp": 8975,
      "vin": 8976,
      "vit": 8977,
      "vot": 8978,
      "vic": 8979,
      "vas": 8980,
      "vld": 8981,
      "vil": 8982,
      "vol": 8983,
      "vie": 8984,
      "vco": 8985,
      "vital": 8986,
      "vib": 8987,
      "virt": 8988,
      "vai": 8989,
      "vpod": 8990,
      "velly": 8991,
      "w4": 8992,
      "w8": 8993,
      "wc": 8994,
      "wre": 8995,
      "wad": 8996,
      "wam": 8997,
      "wend": 8998,
      "wate": 8999,
      "wade": 9000,
      "wounds": 9001,
      "wik": 9002,
      "wester": 9003,
      "w14": 9004,
      "wright": 9005,
      "wtc": 9006,
      "wne": 9007,
      "werent": 9008,
      "wlcome": 9009,
      "wire": 9010,
      "weth": 9011,
      "wc1": 9012,
      "wizz": 9013,
      "wings": 9014,
      "wali": 9015,
      "wicket": 9016,
      "woul": 9017,
      "wquest": 9018,
      "x2": 9019,
      "xt": 9020,
      "xa": 9021,
      "xin": 9022,
      "xox": 9023,
      "xcl": 9024,
      "xins": 9025,
      "xnet": 9026,
      "x29": 9027,
      "yi": 9028,
      "yen": 9029,
      "yow": 9030,
      "yst": 9031,
      "yam": 9032,
      "yess": 9033,
      "yday": 9034,
      "yif": 9035,
      "yard": 9036,
      "yag": 9037,
      "yoy": 9038,
      "yel": 9039,
      "y87": 9040,
      "ywhere": 9041,
      "yorge": 9042,
      "zy": 9043,
      "zh": 9044,
      "zer": 9045,
      "zac": 9046,
      "zah": 9047,
      "zouk": 9048,
      "zindgi": 9049,
      "##vv": 9050,
      "##vo": 9051,
      "##vx": 9052,
      "##var": 9053,
      "##vim": 9054,
      "##vith": 9055,
      "##vry": 9056,
      "##vnt": 9057,
      "##vil": 9058,
      "##vbe": 9059,
      "##vance": 9060,
      "##vip": 9061,
      "##vous": 9062,
      "##v9d": 9063,
      "##ek": 9064,
      "##eve": 9065,
      "##eit": 9066,
      "##eal": 9067,
      "##eere": 9068,
      "##eam": 9069,
      "##eight": 9070,
      "##epp": 9071,
      "##eze": 9072,
      "##eople": 9073,
      "##eating": 9074,
      "##eurs": 9075,
      "##eham": 9076,
      "##event": 9077,
      "##eases": 9078,
      "##bv": 9079,
      "##b3": 9080,
      "##b1": 9081,
      "##b4": 9082,
      "##b8": 9083,
      "##bc": 9084,
      "##bat": 9085,
      "##bing": 9086,
      "##bas": 9087,
      "##bid": 9088,
      "##bac": 9089,
      "##bad": 9090,
      "##bur": 9091,
      "##bie": 9092,
      "##brs": 9093,
      "##both": 9094,
      "##bro": 9095,
      "##bsub": 9096,
      "##burn": 9097,
      "##bling": 9098,
      "##blc": 9099,
      "##bcs": 9100,
      "##bating": 9101,
      "##bett": 9102,
      "##bbs": 9103,
      "##buck": 9104,
      "##bda": 9105,
      "##bham": 9106,
      "##blet": 9107,
      "##bai": 9108,
      "##bitch": 9109,
      "##backs": 9110,
      "##bubb": 9111,
      "##boms": 9112,
      "##better": 9113,
      "##bassy": 9114,
      "##bored": 9115,
      "##btcs": 9116,
      "##37": 9117,
      "##3l": 9118,
      "##3w": 9119,
      "##300": 9120,
      "##310": 9121,
      "##332": 9122,
      "##3net": 9123,
      "##1a": 9124,
      "##1j": 9125,
      "##1thing": 9126,
      "##140": 9127,
      "##110": 9128,
      "##188": 9129,
      "##1more": 9130,
      "##1104": 9131,
      "##1b6": 9132,
      "##1233": 9133,
      "##05": 9134,
      "##0a": 9135,
      "##040": 9136,
      "##0qu": 9137,
      "##0pmin": 9138,
      "##0100": 9139,
      "##0471": 9140,
      "##4u": 9141,
      "##4m": 9142,
      "##4x": 9143,
      "##4an": 9144,
      "##4ad": 9145,
      "##4th": 9146,
      "##4ter": 9147,
      "##4xx": 9148,
      "##466": 9149,
      "##430": 9150,
      "##4get": 9151,
      "##421": 9152,
      "##460": 9153,
      "##411": 9154,
      "##418": 9155,
      "##4msg": 9156,
      "##4net": 9157,
      "##435": 9158,
      "##429": 9159,
      "##419": 9160,
      "##484": 9161,
      "##4w45wq": 9162,
      "##4742": 9163,
      "##yy": 9164,
      "##yo": 9165,
      "##yh": 9166,
      "##yn": 9167,
      "##yk": 9168,
      "##yes": 9169,
      "##yus": 9170,
      "##yep": 9171,
      "##ycl": 9172,
      "##yesterday": 9173,
      "##yhl": 9174,
      "##yooo": 9175,
      "##yyar": 9176,
      "##yota": 9177,
      "##yeh": 9178,
      "##yuh": 9179,
      "##850": 9180,
      "##890": 9181,
      "##8rs": 9182,
      "##815": 9183,
      "##825": 9184,
      "##8327": 9185,
      "##833": 9186,
      "##8711": 9187,
      "##8nn": 9188,
      "##82055": 9189,
      "##8prizes": 9190,
      "##79": 9191,
      "##780": 9192,
      "##788": 9193,
      "##721": 9194,
      "##734": 9195,
      "##739": 9196,
      "##755": 9197,
      "##731": 9198,
      "##72055": 9199,
      "##2s": 9200,
      "##2d": 9201,
      "##2k": 9202,
      "##210": 9203,
      "##245": 9204,
      "##287": 9205,
      "##2wor": 9206,
      "##295": 9207,
      "##2150pm": 9208,
      "##2text": 9209,
      "##2bed": 9210,
      "##2mobile": 9211,
      "##2bre": 9212,
      "##2come": 9213,
      "##2optouth": 9214,
      "##2404000": 9215,
      "##5o": 9216,
      "##5q": 9217,
      "##500": 9218,
      "##5ec": 9219,
      "##520": 9220,
      "##526": 9221,
      "##528": 9222,
      "##561": 9223,
      "##5month": 9224,
      "##5times": 9225,
      "##5428": 9226,
      "##oi": 9227,
      "##oat": 9228,
      "##oing": 9229,
      "##oor": 9230,
      "##oly": 9231,
      "##oid": 9232,
      "##old": 9233,
      "##oand": 9234,
      "##oos": 9235,
      "##oco": 9236,
      "##o69": 9237,
      "##ocking": 9238,
      "##ofa": 9239,
      "##olla": 9240,
      "##offee": 9241,
      "##ooty": 9242,
      "##o1327": 9243,
      "##ovil": 9244,
      "##s7": 9245,
      "##sa": 9246,
      "##sw": 9247,
      "##sis": 9248,
      "##sch": 9249,
      "##sri": 9250,
      "##sec": 9251,
      "##sall": 9252,
      "##sab": 9253,
      "##song": 9254,
      "##sso": 9255,
      "##s150": 9256,
      "##sph": 9257,
      "##sory": 9258,
      "##sret": 9259,
      "##sling": 9260,
      "##sony": 9261,
      "##sman": 9262,
      "##size": 9263,
      "##slist": 9264,
      "##serv": 9265,
      "##sford": 9266,
      "##hd": 9267,
      "##hat": 9268,
      "##han": 9269,
      "##hom": 9270,
      "##har": 9271,
      "##hit": 9272,
      "##hot": 9273,
      "##hle": 9274,
      "##hic": 9275,
      "##hal": 9276,
      "##home": 9277,
      "##had": 9278,
      "##hee": 9279,
      "##hob": 9280,
      "##hand": 9281,
      "##hite": 9282,
      "##hink": 9283,
      "##hha": 9284,
      "##htt": 9285,
      "##hull": 9286,
      "##hib": 9287,
      "##hjust": 9288,
      "##hipt": 9289,
      "##hane": 9290,
      "##hensive": 9291,
      "##hours": 9292,
      "##honi": 9293,
      "##hdset": 9294,
      "##lu": 9295,
      "##lon": 9296,
      "##lan": 9297,
      "##lac": 9298,
      "##lone": 9299,
      "##lam": 9300,
      "##lil": 9301,
      "##lol": 9302,
      "##link": 9303,
      "##lue": 9304,
      "##lare": 9305,
      "##lunch": 9306,
      "##lude": 9307,
      "##lves": 9308,
      "##loss": 9309,
      "##lors": 9310,
      "##lord": 9311,
      "##lising": 9312,
      "##letext": 9313,
      "##l8r": 9314,
      "##lscom": 9315,
      "##l8rs": 9316,
      "##uw": 9317,
      "##uj": 9318,
      "##uing": 9319,
      "##ued": 9320,
      "##uit": 9321,
      "##ugh": 9322,
      "##uations": 9323,
      "##uated": 9324,
      "##ugo": 9325,
      "##ugu": 9326,
      "##ughty": 9327,
      "##ufc": 9328,
      "##uids": 9329,
[...]
